{
  "version": "1.0",
  "truncation": null,
  "padding": null,
  "added_tokens": [
    {
      "id": 0,
      "content": "[UNK]",
      "single_word": false,
      "lstrip": false,
      "rstrip": false,
      "normalized": false,
      "special": true
    },
    {
      "id": 1,
      "content": "[CLS]",
      "single_word": false,
      "lstrip": false,
      "rstrip": false,
      "normalized": false,
      "special": true
    },
    {
      "id": 2,
      "content": "[SEP]",
      "single_word": false,
      "lstrip": false,
      "rstrip": false,
      "normalized": false,
      "special": true
    },
    {
      "id": 3,
      "content": "[PAD]",
      "single_word": false,
      "lstrip": false,
      "rstrip": false,
      "normalized": false,
      "special": true
    },
    {
      "id": 4,
      "content": "[MASK]",
      "single_word": false,
      "lstrip": false,
      "rstrip": false,
      "normalized": false,
      "special": true
    }
  ],
  "normalizer": null,
  "pre_tokenizer": {
    "type": "Whitespace"
  },
  "post_processor": null,
  "decoder": null,
  "model": {
    "type": "BPE",
    "dropout": null,
    "unk_token": "[UNK]",
    "continuing_subword_prefix": null,
    "end_of_word_suffix": null,
    "fuse_unk": false,
    "byte_fallback": false,
    "ignore_merges": false,
    "vocab": {
      "[UNK]": 0,
      "[CLS]": 1,
      "[SEP]": 2,
      "[PAD]": 3,
      "[MASK]": 4,
      "\u0001": 5,
      "\u0002": 6,
      "\u0003": 7,
      "\u0004": 8,
      "\u0005": 9,
      "\u0006": 10,
      "\u0007": 11,
      "\b": 12,
      "\u000e": 13,
      "\u000f": 14,
      "\u0010": 15,
      "\u0011": 16,
      "\u0012": 17,
      "\u0013": 18,
      "\u0014": 19,
      "\u0015": 20,
      "\u0016": 21,
      "\u0017": 22,
      "\u0018": 23,
      "\u0019": 24,
      "\u001b": 25,
      "\u001c": 26,
      "\u001d": 27,
      "\u001e": 28,
      "\u001f": 29,
      "!": 30,
      "\"": 31,
      "#": 32,
      "$": 33,
      "%": 34,
      "&": 35,
      "'": 36,
      "(": 37,
      ")": 38,
      "*": 39,
      "+": 40,
      ",": 41,
      "-": 42,
      ".": 43,
      "/": 44,
      "0": 45,
      "1": 46,
      "2": 47,
      "3": 48,
      "4": 49,
      "5": 50,
      "6": 51,
      "7": 52,
      "8": 53,
      "9": 54,
      ":": 55,
      ";": 56,
      "<": 57,
      "=": 58,
      ">": 59,
      "?": 60,
      "@": 61,
      "A": 62,
      "B": 63,
      "C": 64,
      "D": 65,
      "E": 66,
      "F": 67,
      "G": 68,
      "H": 69,
      "I": 70,
      "J": 71,
      "K": 72,
      "L": 73,
      "M": 74,
      "N": 75,
      "O": 76,
      "P": 77,
      "Q": 78,
      "R": 79,
      "S": 80,
      "T": 81,
      "U": 82,
      "V": 83,
      "W": 84,
      "X": 85,
      "Y": 86,
      "Z": 87,
      "[": 88,
      "\\": 89,
      "]": 90,
      "^": 91,
      "_": 92,
      "`": 93,
      "a": 94,
      "b": 95,
      "c": 96,
      "d": 97,
      "e": 98,
      "f": 99,
      "g": 100,
      "h": 101,
      "i": 102,
      "j": 103,
      "k": 104,
      "l": 105,
      "m": 106,
      "n": 107,
      "o": 108,
      "p": 109,
      "q": 110,
      "r": 111,
      "s": 112,
      "t": 113,
      "u": 114,
      "v": 115,
      "w": 116,
      "x": 117,
      "y": 118,
      "z": 119,
      "{": 120,
      "|": 121,
      "}": 122,
      "~": 123,
      "": 124,
      "": 125,
      "": 126,
      "": 127,
      "¡": 128,
      "¢": 129,
      "£": 130,
      "¤": 131,
      "¥": 132,
      "§": 133,
      "¨": 134,
      "©": 135,
      "ª": 136,
      "«": 137,
      "¬": 138,
      "­": 139,
      "®": 140,
      "¯": 141,
      "°": 142,
      "±": 143,
      "²": 144,
      "³": 145,
      "´": 146,
      "µ": 147,
      "¶": 148,
      "·": 149,
      "¸": 150,
      "¹": 151,
      "º": 152,
      "»": 153,
      "¼": 154,
      "½": 155,
      "¾": 156,
      "¿": 157,
      "À": 158,
      "Á": 159,
      "Â": 160,
      "Ã": 161,
      "Ä": 162,
      "Å": 163,
      "Æ": 164,
      "Ç": 165,
      "È": 166,
      "É": 167,
      "Ê": 168,
      "Ë": 169,
      "Ì": 170,
      "Í": 171,
      "Î": 172,
      "Ï": 173,
      "Ð": 174,
      "Ñ": 175,
      "Ò": 176,
      "Ó": 177,
      "Ô": 178,
      "Õ": 179,
      "Ö": 180,
      "×": 181,
      "Ø": 182,
      "Ú": 183,
      "Û": 184,
      "Ü": 185,
      "Ý": 186,
      "Þ": 187,
      "ß": 188,
      "à": 189,
      "á": 190,
      "â": 191,
      "ã": 192,
      "ä": 193,
      "å": 194,
      "æ": 195,
      "ç": 196,
      "è": 197,
      "é": 198,
      "ê": 199,
      "ë": 200,
      "ì": 201,
      "í": 202,
      "î": 203,
      "ï": 204,
      "ð": 205,
      "ñ": 206,
      "ò": 207,
      "ó": 208,
      "ô": 209,
      "õ": 210,
      "ö": 211,
      "÷": 212,
      "ø": 213,
      "ù": 214,
      "ú": 215,
      "û": 216,
      "ü": 217,
      "ý": 218,
      "þ": 219,
      "ÿ": 220,
      "Ā": 221,
      "ā": 222,
      "Ă": 223,
      "ă": 224,
      "Ą": 225,
      "ą": 226,
      "Ć": 227,
      "ć": 228,
      "Ĉ": 229,
      "ĉ": 230,
      "Ċ": 231,
      "ċ": 232,
      "Č": 233,
      "č": 234,
      "Ď": 235,
      "ď": 236,
      "Đ": 237,
      "đ": 238,
      "Ē": 239,
      "ē": 240,
      "ĕ": 241,
      "Ė": 242,
      "ė": 243,
      "Ę": 244,
      "ę": 245,
      "Ě": 246,
      "ě": 247,
      "Ĝ": 248,
      "ĝ": 249,
      "Ğ": 250,
      "ğ": 251,
      "Ġ": 252,
      "ġ": 253,
      "ģ": 254,
      "Ĥ": 255,
      "Ħ": 256,
      "ħ": 257,
      "ĩ": 258,
      "Ī": 259,
      "ī": 260,
      "Ĭ": 261,
      "ĭ": 262,
      "Į": 263,
      "İ": 264,
      "ı": 265,
      "ĳ": 266,
      "Ĵ": 267,
      "Ķ": 268,
      "ķ": 269,
      "ĸ": 270,
      "Ĺ": 271,
      "ĺ": 272,
      "Ļ": 273,
      "ļ": 274,
      "Ľ": 275,
      "ľ": 276,
      "Ł": 277,
      "ł": 278,
      "Ń": 279,
      "ń": 280,
      "Ņ": 281,
      "ņ": 282,
      "Ň": 283,
      "ň": 284,
      "ŉ": 285,
      "Ō": 286,
      "ō": 287,
      "ŏ": 288,
      "Ő": 289,
      "ő": 290,
      "Œ": 291,
      "œ": 292,
      "Ŕ": 293,
      "ŕ": 294,
      "Ř": 295,
      "ř": 296,
      "Ś": 297,
      "ś": 298,
      "Ŝ": 299,
      "ŝ": 300,
      "Ş": 301,
      "ş": 302,
      "Š": 303,
      "š": 304,
      "Ţ": 305,
      "ţ": 306,
      "Ť": 307,
      "ť": 308,
      "ũ": 309,
      "Ū": 310,
      "ū": 311,
      "Ŭ": 312,
      "ŭ": 313,
      "ů": 314,
      "ű": 315,
      "ų": 316,
      "ŵ": 317,
      "ŷ": 318,
      "Ź": 319,
      "ź": 320,
      "Ż": 321,
      "ż": 322,
      "Ž": 323,
      "ž": 324,
      "Ɓ": 325,
      "Ƃ": 326,
      "Ƅ": 327,
      "Ƈ": 328,
      "Ɗ": 329,
      "Ƌ": 330,
      "Ǝ": 331,
      "Ə": 332,
      "Ɛ": 333,
      "Ƒ": 334,
      "Ɠ": 335,
      "Ɨ": 336,
      "Ƙ": 337,
      "Ɯ": 338,
      "Ɲ": 339,
      "Ɵ": 340,
      "Ơ": 341,
      "ơ": 342,
      "Ƥ": 343,
      "Ʀ": 344,
      "Ƨ": 345,
      "Ƭ": 346,
      "Ʈ": 347,
      "Ư": 348,
      "ư": 349,
      "Ʊ": 350,
      "Ʋ": 351,
      "Ƴ": 352,
      "Ƹ": 353,
      "Ƽ": 354,
      "ǀ": 355,
      "ǁ": 356,
      "ǂ": 357,
      "ǃ": 358,
      "ǎ": 359,
      "ǐ": 360,
      "ǒ": 361,
      "ǔ": 362,
      "ǘ": 363,
      "ǚ": 364,
      "ǜ": 365,
      "Ǧ": 366,
      "ǧ": 367,
      "Ǩ": 368,
      "Ǯ": 369,
      "Ǵ": 370,
      "Ǹ": 371,
      "Ǻ": 372,
      "ǽ": 373,
      "ǿ": 374,
      "ȃ": 375,
      "Ȏ": 376,
      "ȏ": 377,
      "Ș": 378,
      "ș": 379,
      "Ț": 380,
      "ț": 381,
      "Ȧ": 382,
      "Ȼ": 383,
      "ȼ": 384,
      "Ƀ": 385,
      "ɑ": 386,
      "ə": 387,
      "ʺ": 388,
      "ʻ": 389,
      "ʾ": 390,
      "ʿ": 391,
      "ˇ": 392,
      "ˉ": 393,
      "ˋ": 394,
      "˗": 395,
      "˙": 396,
      "˚": 397,
      "˝": 398,
      "ˮ": 399,
      "̀": 400,
      "́": 401,
      "̂": 402,
      "̃": 403,
      "̄": 404,
      "̇": 405,
      "̈": 406,
      "̌": 407,
      "̍": 408,
      "̒": 409,
      "̓": 410,
      "̕": 411,
      "̧": 412,
      "̵": 413,
      "̶": 414,
      "̷": 415,
      "͘": 416,
      ";": 417,
      "΄": 418,
      "Α": 419,
      "Β": 420,
      "Γ": 421,
      "Δ": 422,
      "Ε": 423,
      "Η": 424,
      "Ι": 425,
      "Κ": 426,
      "Μ": 427,
      "Ν": 428,
      "Ξ": 429,
      "Ο": 430,
      "Π": 431,
      "Σ": 432,
      "Τ": 433,
      "Υ": 434,
      "Φ": 435,
      "Χ": 436,
      "Ψ": 437,
      "Ω": 438,
      "ί": 439,
      "α": 440,
      "β": 441,
      "γ": 442,
      "δ": 443,
      "ε": 444,
      "ζ": 445,
      "η": 446,
      "θ": 447,
      "ι": 448,
      "κ": 449,
      "λ": 450,
      "μ": 451,
      "ν": 452,
      "ξ": 453,
      "ο": 454,
      "π": 455,
      "ρ": 456,
      "ς": 457,
      "σ": 458,
      "τ": 459,
      "υ": 460,
      "φ": 461,
      "χ": 462,
      "ψ": 463,
      "ω": 464,
      "ϊ": 465,
      "ό": 466,
      "ϕ": 467,
      "Є": 468,
      "І": 469,
      "А": 470,
      "Б": 471,
      "В": 472,
      "Г": 473,
      "Д": 474,
      "Е": 475,
      "Ж": 476,
      "З": 477,
      "И": 478,
      "Й": 479,
      "К": 480,
      "Л": 481,
      "М": 482,
      "Н": 483,
      "О": 484,
      "П": 485,
      "Р": 486,
      "С": 487,
      "Т": 488,
      "У": 489,
      "Ф": 490,
      "Х": 491,
      "Ч": 492,
      "Ш": 493,
      "Ъ": 494,
      "Ю": 495,
      "Я": 496,
      "а": 497,
      "б": 498,
      "в": 499,
      "г": 500,
      "д": 501,
      "е": 502,
      "ж": 503,
      "з": 504,
      "и": 505,
      "й": 506,
      "к": 507,
      "л": 508,
      "м": 509,
      "н": 510,
      "о": 511,
      "п": 512,
      "р": 513,
      "с": 514,
      "т": 515,
      "у": 516,
      "ф": 517,
      "х": 518,
      "ц": 519,
      "ч": 520,
      "ш": 521,
      "щ": 522,
      "ъ": 523,
      "ы": 524,
      "ь": 525,
      "э": 526,
      "ю": 527,
      "я": 528,
      "ё": 529,
      "є": 530,
      "і": 531,
      "ї": 532,
      "ј": 533,
      "ў": 534,
      "қ": 535,
      "ҫ": 536,
      "ӓ": 537,
      "ӧ": 538,
      "ְ": 539,
      "ִ": 540,
      "ֵ": 541,
      "ָ": 542,
      "ּ": 543,
      "א": 544,
      "ב": 545,
      "ג": 546,
      "ד": 547,
      "ה": 548,
      "ו": 549,
      "י": 550,
      "כ": 551,
      "ל": 552,
      "ם": 553,
      "מ": 554,
      "ן": 555,
      "נ": 556,
      "ס": 557,
      "ע": 558,
      "פ": 559,
      "צ": 560,
      "ק": 561,
      "ר": 562,
      "ת": 563,
      "،": 564,
      "؛": 565,
      "أ": 566,
      "ؤ": 567,
      "إ": 568,
      "ئ": 569,
      "ا": 570,
      "ب": 571,
      "ة": 572,
      "ت": 573,
      "ث": 574,
      "ج": 575,
      "ح": 576,
      "د": 577,
      "ر": 578,
      "ز": 579,
      "س": 580,
      "ش": 581,
      "ص": 582,
      "ض": 583,
      "ع": 584,
      "ـ": 585,
      "ف": 586,
      "ق": 587,
      "ك": 588,
      "ل": 589,
      "م": 590,
      "ن": 591,
      "ه": 592,
      "و": 593,
      "ى": 594,
      "ي": 595,
      "ٍ": 596,
      "ُ": 597,
      "ِ": 598,
      "٬": 599,
      "ٱ": 600,
      "ڤ": 601,
      "ک": 602,
      "ی": 603,
      "अ": 604,
      "ट": 605,
      "त": 606,
      "प": 607,
      "र": 608,
      "ल": 609,
      "ा": 610,
      "ि": 611,
      "ु": 612,
      "्": 613,
      "இ": 614,
      "க": 615,
      "ங": 616,
      "ல": 617,
      "ை": 618,
      "்": 619,
      "ං": 620,
      "ක": 621,
      "ල": 622,
      "ා": 623,
      "ช": 624,
      "ญ": 625,
      "ท": 626,
      "ธ": 627,
      "น": 628,
      "บ": 629,
      "พ": 630,
      "ย": 631,
      "ฤ": 632,
      "ว": 633,
      "ั": 634,
      "ิ": 635,
      "ุ": 636,
      "่": 637,
      "์": 638,
      "ག": 639,
      "ཚ": 640,
      "ཛ": 641,
      "ས": 642,
      "ེ": 643,
      "ྣ": 644,
      "ྦ": 645,
      "ྭ": 646,
      "ო": 647,
      "Ḍ": 648,
      "ḍ": 649,
      "Ḑ": 650,
      "ḥ": 651,
      "Ḫ": 652,
      "ḫ": 653,
      "ḱ": 654,
      "ḳ": 655,
      "Ḷ": 656,
      "ḷ": 657,
      "Ḿ": 658,
      "ṃ": 659,
      "ṅ": 660,
      "ṇ": 661,
      "Ṛ": 662,
      "ṛ": 663,
      "ṟ": 664,
      "Ṡ": 665,
      "Ṣ": 666,
      "ṣ": 667,
      "ṧ": 668,
      "Ṭ": 669,
      "ṭ": 670,
      "ṯ": 671,
      "ṳ": 672,
      "Ẋ": 673,
      "Ẑ": 674,
      "Ẓ": 675,
      "ẞ": 676,
      "ạ": 677,
      "Ả": 678,
      "ả": 679,
      "Ấ": 680,
      "ấ": 681,
      "ầ": 682,
      "Ẩ": 683,
      "ẩ": 684,
      "ẫ": 685,
      "ậ": 686,
      "ắ": 687,
      "ằ": 688,
      "ẵ": 689,
      "ặ": 690,
      "ẻ": 691,
      "Ẽ": 692,
      "ẽ": 693,
      "ế": 694,
      "ề": 695,
      "ể": 696,
      "ễ": 697,
      "ệ": 698,
      "ỉ": 699,
      "ị": 700,
      "Ọ": 701,
      "ọ": 702,
      "ỏ": 703,
      "ố": 704,
      "ồ": 705,
      "ổ": 706,
      "ỗ": 707,
      "ộ": 708,
      "ớ": 709,
      "ờ": 710,
      "ở": 711,
      "ợ": 712,
      "ụ": 713,
      "ủ": 714,
      "Ứ": 715,
      "ứ": 716,
      "ừ": 717,
      "ử": 718,
      "ữ": 719,
      "ự": 720,
      "ỳ": 721,
      "Ỷ": 722,
      "ỷ": 723,
      "ỹ": 724,
      "‎": 725,
      "‐": 726,
      "‑": 727,
      "‒": 728,
      "–": 729,
      "—": 730,
      "―": 731,
      "‖": 732,
      "‘": 733,
      "’": 734,
      "‚": 735,
      "‛": 736,
      "“": 737,
      "”": 738,
      "„": 739,
      "‟": 740,
      "†": 741,
      "‡": 742,
      "•": 743,
      "…": 744,
      "‰": 745,
      "′": 746,
      "″": 747,
      "‵": 748,
      "‹": 749,
      "※": 750,
      "⁄": 751,
      "⁰": 752,
      "₂": 753,
      "₤": 754,
      "₩": 755,
      "€": 756,
      "₽": 757,
      "℃": 758,
      "℉": 759,
      "ℓ": 760,
      "№": 761,
      "™": 762,
      "Ⅰ": 763,
      "Ⅱ": 764,
      "Ⅲ": 765,
      "Ⅳ": 766,
      "Ⅴ": 767,
      "Ⅵ": 768,
      "Ⅶ": 769,
      "Ⅷ": 770,
      "Ⅸ": 771,
      "←": 772,
      "↑": 773,
      "→": 774,
      "↓": 775,
      "↔": 776,
      "↗": 777,
      "↙": 778,
      "⇄": 779,
      "⇒": 780,
      "∂": 781,
      "∅": 782,
      "∆": 783,
      "∑": 784,
      "−": 785,
      "∕": 786,
      "∗": 787,
      "∙": 788,
      "√": 789,
      "∝": 790,
      "∞": 791,
      "∧": 792,
      "∨": 793,
      "∪": 794,
      "∮": 795,
      "∴": 796,
      "∶": 797,
      "∼": 798,
      "≅": 799,
      "≈": 800,
      "≠": 801,
      "≡": 802,
      "≤": 803,
      "≥": 804,
      "≧": 805,
      "≯": 806,
      "⊙": 807,
      "⋅": 808,
      "⋯": 809,
      "⌒": 810,
      "①": 811,
      "②": 812,
      "③": 813,
      "④": 814,
      "⑤": 815,
      "⑥": 816,
      "⑦": 817,
      "⑧": 818,
      "⑨": 819,
      "⑩": 820,
      "⑪": 821,
      "─": 822,
      "│": 823,
      "┓": 824,
      "┖": 825,
      "┗": 826,
      "┚": 827,
      "╀": 828,
      "╁": 829,
      "╂": 830,
      "╃": 831,
      "╄": 832,
      "╋": 833,
      "╝": 834,
      "╱": 835,
      "█": 836,
      "▉": 837,
      "■": 838,
      "□": 839,
      "▪": 840,
      "▫": 841,
      "▲": 842,
      "△": 843,
      "▸": 844,
      "►": 845,
      "▼": 846,
      "◄": 847,
      "◆": 848,
      "◇": 849,
      "◊": 850,
      "○": 851,
      "●": 852,
      "◙": 853,
      "◦": 854,
      "★": 855,
      "☆": 856,
      "☐": 857,
      "♢": 858,
      "♦": 859,
      "♭": 860,
      "♯": 861,
      "✓": 862,
      "❏": 863,
      "➢": 864,
      "⟨": 865,
      "⟩": 866,
      "、": 867,
      "。": 868,
      "〃": 869,
      "《": 870,
      "》": 871,
      "「": 872,
      "」": 873,
      "『": 874,
      "』": 875,
      "【": 876,
      "】": 877,
      "〔": 878,
      "〕": 879,
      "〝": 880,
      "〞": 881,
      "あ": 882,
      "い": 883,
      "ぇ": 884,
      "ぉ": 885,
      "お": 886,
      "か": 887,
      "き": 888,
      "く": 889,
      "け": 890,
      "ご": 891,
      "じ": 892,
      "す": 893,
      "ず": 894,
      "そ": 895,
      "ち": 896,
      "っ": 897,
      "で": 898,
      "と": 899,
      "な": 900,
      "の": 901,
      "は": 902,
      "び": 903,
      "ぺ": 904,
      "ぼ": 905,
      "ま": 906,
      "み": 907,
      "や": 908,
      "ゅ": 909,
      "ょ": 910,
      "よ": 911,
      "ら": 912,
      "る": 913,
      "れ": 914,
      "ん": 915,
      "ア": 916,
      "イ": 917,
      "ゥ": 918,
      "ウ": 919,
      "カ": 920,
      "ク": 921,
      "コ": 922,
      "ス": 923,
      "ゼ": 924,
      "ソ": 925,
      "タ": 926,
      "ダ": 927,
      "チ": 928,
      "ッ": 929,
      "ト": 930,
      "ニ": 931,
      "ポ": 932,
      "マ": 933,
      "モ": 934,
      "ャ": 935,
      "ヤ": 936,
      "ュ": 937,
      "ユ": 938,
      "ョ": 939,
      "ヨ": 940,
      "ラ": 941,
      "ル": 942,
      "ロ": 943,
      "ワ": 944,
      "ン": 945,
      "・": 946,
      "ー": 947,
      "ㄛ": 948,
      "ㄣ": 949,
      "ㄤ": 950,
      "ㄥ": 951,
      "ㄦ": 952,
      "ㄧ": 953,
      "ㄨ": 954,
      "ㄩ": 955,
      "ㄱ": 956,
      "ㄴ": 957,
      "ㄷ": 958,
      "ㄹ": 959,
      "ㅁ": 960,
      "ㅂ": 961,
      "ㅅ": 962,
      "ㅇ": 963,
      "ㅈ": 964,
      "ㅊ": 965,
      "ㅋ": 966,
      "ㅌ": 967,
      "ㅍ": 968,
      "ㅎ": 969,
      "ㅏ": 970,
      "ㅐ": 971,
      "ㅑ": 972,
      "ㅒ": 973,
      "ㅓ": 974,
      "ㅔ": 975,
      "ㅕ": 976,
      "ㅖ": 977,
      "ㅗ": 978,
      "ㅛ": 979,
      "ㅜ": 980,
      "ㅠ": 981,
      "ㅡ": 982,
      "ㅢ": 983,
      "ㅣ": 984,
      "㈠": 985,
      "㈡": 986,
      "㈢": 987,
      "㈣": 988,
      "㈤": 989,
      "㎜": 990,
      "㎡": 991,
      "㎢": 992,
      "一": 993,
      "丁": 994,
      "七": 995,
      "丄": 996,
      "丅": 997,
      "丆": 998,
      "万": 999,
      "丈": 1000,
      "三": 1001,
      "上": 1002,
      "下": 1003,
      "不": 1004,
      "与": 1005,
      "丏": 1006,
      "丑": 1007,
      "丒": 1008,
      "专": 1009,
      "且": 1010,
      "世": 1011,
      "丗": 1012,
      "业": 1013,
      "东": 1014,
      "丝": 1015,
      "丟": 1016,
      "丠": 1017,
      "両": 1018,
      "两": 1019,
      "丩": 1020,
      "个": 1021,
      "中": 1022,
      "丮": 1023,
      "丯": 1024,
      "丱": 1025,
      "丳": 1026,
      "临": 1027,
      "丵": 1028,
      "丷": 1029,
      "丹": 1030,
      "为": 1031,
      "主": 1032,
      "丼": 1033,
      "丽": 1034,
      "举": 1035,
      "乀": 1036,
      "乃": 1037,
      "乄": 1038,
      "久": 1039,
      "么": 1040,
      "义": 1041,
      "乊": 1042,
      "之": 1043,
      "乌": 1044,
      "乎": 1045,
      "乏": 1046,
      "乐": 1047,
      "乔": 1048,
      "乘": 1049,
      "乙": 1050,
      "九": 1051,
      "也": 1052,
      "习": 1053,
      "乡": 1054,
      "乤": 1055,
      "书": 1056,
      "乭": 1057,
      "乱": 1058,
      "乴": 1059,
      "乸": 1060,
      "乼": 1061,
      "亀": 1062,
      "亂": 1063,
      "了": 1064,
      "予": 1065,
      "争": 1066,
      "事": 1067,
      "二": 1068,
      "于": 1069,
      "云": 1070,
      "互": 1071,
      "五": 1072,
      "井": 1073,
      "亗": 1074,
      "亚": 1075,
      "些": 1076,
      "亡": 1077,
      "亢": 1078,
      "亣": 1079,
      "交": 1080,
      "亦": 1081,
      "产": 1082,
      "京": 1083,
      "亭": 1084,
      "亮": 1085,
      "亱": 1086,
      "亲": 1087,
      "亴": 1088,
      "亸": 1089,
      "人": 1090,
      "亾": 1091,
      "亿": 1092,
      "什": 1093,
      "仁": 1094,
      "仈": 1095,
      "今": 1096,
      "介": 1097,
      "仍": 1098,
      "从": 1099,
      "仔": 1100,
      "他": 1101,
      "仙": 1102,
      "仛": 1103,
      "代": 1104,
      "令": 1105,
      "以": 1106,
      "们": 1107,
      "仯": 1108,
      "仰": 1109,
      "仲": 1110,
      "件": 1111,
      "价": 1112,
      "仺": 1113,
      "任": 1114,
      "份": 1115,
      "仾": 1116,
      "伀": 1117,
      "伅": 1118,
      "伎": 1119,
      "伐": 1120,
      "休": 1121,
      "伒": 1122,
      "伓": 1123,
      "众": 1124,
      "优": 1125,
      "伙": 1126,
      "会": 1127,
      "伟": 1128,
      "传": 1129,
      "伤": 1130,
      "估": 1131,
      "伴": 1132,
      "似": 1133,
      "佃": 1134,
      "但": 1135,
      "位": 1136,
      "低": 1137,
      "住": 1138,
      "体": 1139,
      "何": 1140,
      "余": 1141,
      "佛": 1142,
      "作": 1143,
      "佟": 1144,
      "你": 1145,
      "佣": 1146,
      "佩": 1147,
      "佲": 1148,
      "佳": 1149,
      "佷": 1150,
      "佸": 1151,
      "佹": 1152,
      "佺": 1153,
      "佽": 1154,
      "使": 1155,
      "侀": 1156,
      "侊": 1157,
      "例": 1158,
      "侍": 1159,
      "供": 1160,
      "依": 1161,
      "侠": 1162,
      "侧": 1163,
      "侫": 1164,
      "侭": 1165,
      "侱": 1166,
      "侷": 1167,
      "便": 1168,
      "促": 1169,
      "俆": 1170,
      "俊": 1171,
      "俚": 1172,
      "保": 1173,
      "俠": 1174,
      "信": 1175,
      "修": 1176,
      "倃": 1177,
      "倒": 1178,
      "倖": 1179,
      "候": 1180,
      "借": 1181,
      "倢": 1182,
      "値": 1183,
      "倱": 1184,
      "倲": 1185,
      "倸": 1186,
      "债": 1187,
      "值": 1188,
      "偄": 1189,
      "偅": 1190,
      "偆": 1191,
      "假": 1192,
      "偉": 1193,
      "偍": 1194,
      "偏": 1195,
      "偗": 1196,
      "做": 1197,
      "偛": 1198,
      "偣": 1199,
      "健": 1200,
      "偨": 1201,
      "偶": 1202,
      "傗": 1203,
      "備": 1204,
      "傚": 1205,
      "傛": 1206,
      "傜": 1207,
      "傝": 1208,
      "傦": 1209,
      "储": 1210,
      "催": 1211,
      "傻": 1212,
      "僌": 1213,
      "像": 1214,
      "僪": 1215,
      "僶": 1216,
      "僺": 1217,
      "儉": 1218,
      "儏": 1219,
      "儐": 1220,
      "儕": 1221,
      "儗": 1222,
      "儨": 1223,
      "優": 1224,
      "儴": 1225,
      "儹": 1226,
      "儻": 1227,
      "儿": 1228,
      "兂": 1229,
      "元": 1230,
      "兄": 1231,
      "充": 1232,
      "先": 1233,
      "光": 1234,
      "克": 1235,
      "免": 1236,
      "兎": 1237,
      "兔": 1238,
      "兘": 1239,
      "党": 1240,
      "兢": 1241,
      "入": 1242,
      "內": 1243,
      "全": 1244,
      "八": 1245,
      "公": 1246,
      "六": 1247,
      "兰": 1248,
      "共": 1249,
      "关": 1250,
      "兴": 1251,
      "兵": 1252,
      "其": 1253,
      "具": 1254,
      "典": 1255,
      "养": 1256,
      "兼": 1257,
      "内": 1258,
      "再": 1259,
      "写": 1260,
      "农": 1261,
      "冠": 1262,
      "冥": 1263,
      "冧": 1264,
      "冨": 1265,
      "冪": 1266,
      "冬": 1267,
      "冭": 1268,
      "冮": 1269,
      "冰": 1270,
      "冲": 1271,
      "决": 1272,
      "况": 1273,
      "冷": 1274,
      "冻": 1275,
      "准": 1276,
      "减": 1277,
      "凝": 1278,
      "几": 1279,
      "凡": 1280,
      "凤": 1281,
      "凩": 1282,
      "凰": 1283,
      "凹": 1284,
      "出": 1285,
      "刀": 1286,
      "分": 1287,
      "切": 1288,
      "刊": 1289,
      "划": 1290,
      "刔": 1291,
      "刘": 1292,
      "则": 1293,
      "刚": 1294,
      "创": 1295,
      "初": 1296,
      "刟": 1297,
      "判": 1298,
      "利": 1299,
      "别": 1300,
      "刮": 1301,
      "到": 1302,
      "制": 1303,
      "刻": 1304,
      "剁": 1305,
      "剂": 1306,
      "前": 1307,
      "剑": 1308,
      "剚": 1309,
      "剛": 1310,
      "剧": 1311,
      "副": 1312,
      "剰": 1313,
      "剳": 1314,
      "劅": 1315,
      "劋": 1316,
      "劙": 1317,
      "劚": 1318,
      "力": 1319,
      "办": 1320,
      "功": 1321,
      "加": 1322,
      "务": 1323,
      "劧": 1324,
      "动": 1325,
      "助": 1326,
      "努": 1327,
      "劳": 1328,
      "効": 1329,
      "势": 1330,
      "勋": 1331,
      "勒": 1332,
      "勤": 1333,
      "勩": 1334,
      "勪": 1335,
      "勫": 1336,
      "勬": 1337,
      "勭": 1338,
      "勮": 1339,
      "勯": 1340,
      "勶": 1341,
      "勾": 1342,
      "勿": 1343,
      "包": 1344,
      "化": 1345,
      "北": 1346,
      "匡": 1347,
      "匽": 1348,
      "區": 1349,
      "十": 1350,
      "千": 1351,
      "卅": 1352,
      "升": 1353,
      "午": 1354,
      "半": 1355,
      "华": 1356,
      "协": 1357,
      "单": 1358,
      "南": 1359,
      "博": 1360,
      "卞": 1361,
      "卡": 1362,
      "卧": 1363,
      "卫": 1364,
      "卯": 1365,
      "印": 1366,
      "危": 1367,
      "即": 1368,
      "却": 1369,
      "卷": 1370,
      "厀": 1371,
      "厂": 1372,
      "厅": 1373,
      "历": 1374,
      "压": 1375,
      "厔": 1376,
      "厘": 1377,
      "厛": 1378,
      "厜": 1379,
      "原": 1380,
      "厠": 1381,
      "厡": 1382,
      "厤": 1383,
      "厨": 1384,
      "厰": 1385,
      "厱": 1386,
      "厷": 1387,
      "去": 1388,
      "参": 1389,
      "參": 1390,
      "叆": 1391,
      "又": 1392,
      "叉": 1393,
      "及": 1394,
      "友": 1395,
      "双": 1396,
      "反": 1397,
      "収": 1398,
      "叏": 1399,
      "发": 1400,
      "叓": 1401,
      "叕": 1402,
      "取": 1403,
      "受": 1404,
      "变": 1405,
      "叚": 1406,
      "叜": 1407,
      "叝": 1408,
      "叞": 1409,
      "叠": 1410,
      "叡": 1411,
      "口": 1412,
      "古": 1413,
      "句": 1414,
      "叧": 1415,
      "只": 1416,
      "可": 1417,
      "台": 1418,
      "史": 1419,
      "右": 1420,
      "号": 1421,
      "司": 1422,
      "叺": 1423,
      "叾": 1424,
      "吀": 1425,
      "吃": 1426,
      "各": 1427,
      "吇": 1428,
      "合": 1429,
      "吉": 1430,
      "同": 1431,
      "名": 1432,
      "后": 1433,
      "向": 1434,
      "吗": 1435,
      "君": 1436,
      "否": 1437,
      "吧": 1438,
      "含": 1439,
      "听": 1440,
      "启": 1441,
      "吸": 1442,
      "吻": 1443,
      "呆": 1444,
      "呈": 1445,
      "告": 1446,
      "员": 1447,
      "呢": 1448,
      "呦": 1449,
      "周": 1450,
      "呫": 1451,
      "呭": 1452,
      "呮": 1453,
      "呯": 1454,
      "呰": 1455,
      "味": 1456,
      "呴": 1457,
      "呼": 1458,
      "命": 1459,
      "咃": 1460,
      "和": 1461,
      "咕": 1462,
      "咖": 1463,
      "咥": 1464,
      "咨": 1465,
      "咱": 1466,
      "品": 1467,
      "哃": 1468,
      "哄": 1469,
      "哇": 1470,
      "哋": 1471,
      "哌": 1472,
      "哗": 1473,
      "哝": 1474,
      "哠": 1475,
      "員": 1476,
      "哤": 1477,
      "哥": 1478,
      "哨": 1479,
      "哩": 1480,
      "哪": 1481,
      "唅": 1482,
      "唇": 1483,
      "唐": 1484,
      "唑": 1485,
      "唬": 1486,
      "售": 1487,
      "唯": 1488,
      "唱": 1489,
      "唴": 1490,
      "唶": 1491,
      "唻": 1492,
      "啀": 1493,
      "商": 1494,
      "啊": 1495,
      "啘": 1496,
      "啙": 1497,
      "啡": 1498,
      "啣": 1499,
      "啦": 1500,
      "啶": 1501,
      "喂": 1502,
      "善": 1503,
      "喘": 1504,
      "喜": 1505,
      "喝": 1506,
      "喵": 1507,
      "営": 1508,
      "嗎": 1509,
      "嗐": 1510,
      "嗕": 1511,
      "嗗": 1512,
      "嗘": 1513,
      "嗙": 1514,
      "嗚": 1515,
      "嗛": 1516,
      "嗨": 1517,
      "嗩": 1518,
      "嗭": 1519,
      "嗷": 1520,
      "嘇": 1521,
      "嘊": 1522,
      "嘋": 1523,
      "嘔": 1524,
      "嘝": 1525,
      "嘥": 1526,
      "嘲": 1527,
      "嘴": 1528,
      "嘽": 1529,
      "嘿": 1530,
      "噇": 1531,
      "噑": 1532,
      "噒": 1533,
      "噢": 1534,
      "噦": 1535,
      "器": 1536,
      "噯": 1537,
      "噴": 1538,
      "噷": 1539,
      "噸": 1540,
      "噺": 1541,
      "噾": 1542,
      "嚌": 1543,
      "嚜": 1544,
      "嚧": 1545,
      "嚭": 1546,
      "囊": 1547,
      "四": 1548,
      "回": 1549,
      "因": 1550,
      "团": 1551,
      "囥": 1552,
      "囦": 1553,
      "囧": 1554,
      "囨": 1555,
      "囩": 1556,
      "囪": 1557,
      "囬": 1558,
      "园": 1559,
      "困": 1560,
      "围": 1561,
      "囷": 1562,
      "固": 1563,
      "国": 1564,
      "圈": 1565,
      "國": 1566,
      "圓": 1567,
      "圔": 1568,
      "圕": 1569,
      "圖": 1570,
      "圗": 1571,
      "團": 1572,
      "圙": 1573,
      "圚": 1574,
      "圛": 1575,
      "圝": 1576,
      "土": 1577,
      "圠": 1578,
      "圡": 1579,
      "圢": 1580,
      "圣": 1581,
      "圤": 1582,
      "圥": 1583,
      "圦": 1584,
      "圧": 1585,
      "在": 1586,
      "圫": 1587,
      "圭": 1588,
      "地": 1589,
      "圱": 1590,
      "圴": 1591,
      "圵": 1592,
      "场": 1593,
      "圿": 1594,
      "址": 1595,
      "坃": 1596,
      "坅": 1597,
      "坆": 1598,
      "均": 1599,
      "坈": 1600,
      "坉": 1601,
      "坋": 1602,
      "坐": 1603,
      "坒": 1604,
      "坓": 1605,
      "坔": 1606,
      "坕": 1607,
      "坖": 1608,
      "块": 1609,
      "坘": 1610,
      "坙": 1611,
      "坚": 1612,
      "坛": 1613,
      "坢": 1614,
      "坣": 1615,
      "坥": 1616,
      "坧": 1617,
      "坪": 1618,
      "坮": 1619,
      "坰": 1620,
      "坱": 1621,
      "坲": 1622,
      "坴": 1623,
      "坵": 1624,
      "坸": 1625,
      "型": 1626,
      "垎": 1627,
      "垏": 1628,
      "垔": 1629,
      "垖": 1630,
      "垚": 1631,
      "垜": 1632,
      "垝": 1633,
      "垨": 1634,
      "垬": 1635,
      "垮": 1636,
      "垯": 1637,
      "垰": 1638,
      "垱": 1639,
      "垶": 1640,
      "垽": 1641,
      "埃": 1642,
      "埄": 1643,
      "埇": 1644,
      "埌": 1645,
      "埍": 1646,
      "城": 1647,
      "埗": 1648,
      "埛": 1649,
      "埜": 1650,
      "埢": 1651,
      "培": 1652,
      "基": 1653,
      "堂": 1654,
      "堕": 1655,
      "堚": 1656,
      "堛": 1657,
      "堜": 1658,
      "堝": 1659,
      "堟": 1660,
      "堡": 1661,
      "堢": 1662,
      "堣": 1663,
      "堥": 1664,
      "堪": 1665,
      "堬": 1666,
      "場": 1667,
      "堿": 1668,
      "塀": 1669,
      "塁": 1670,
      "塂": 1671,
      "塃": 1672,
      "塅": 1673,
      "塆": 1674,
      "塇": 1675,
      "塈": 1676,
      "塋": 1677,
      "塎": 1678,
      "塏": 1679,
      "塐": 1680,
      "塑": 1681,
      "塒": 1682,
      "塕": 1683,
      "塖": 1684,
      "塗": 1685,
      "塛": 1686,
      "塝": 1687,
      "塤": 1688,
      "塧": 1689,
      "塪": 1690,
      "塭": 1691,
      "塮": 1692,
      "塯": 1693,
      "塰": 1694,
      "塱": 1695,
      "塵": 1696,
      "塷": 1697,
      "塹": 1698,
      "塻": 1699,
      "塼": 1700,
      "塽": 1701,
      "墂": 1702,
      "境": 1703,
      "墅": 1704,
      "墍": 1705,
      "墖": 1706,
      "増": 1707,
      "墜": 1708,
      "增": 1709,
      "墠": 1710,
      "墦": 1711,
      "墧": 1712,
      "墨": 1713,
      "墭": 1714,
      "墿": 1715,
      "壁": 1716,
      "壇": 1717,
      "壊": 1718,
      "壒": 1719,
      "壓": 1720,
      "壘": 1721,
      "士": 1722,
      "声": 1723,
      "处": 1724,
      "备": 1725,
      "夈": 1726,
      "変": 1727,
      "夊": 1728,
      "夋": 1729,
      "夌": 1730,
      "复": 1731,
      "夎": 1732,
      "夏": 1733,
      "夐": 1734,
      "外": 1735,
      "多": 1736,
      "夛": 1737,
      "夜": 1738,
      "大": 1739,
      "天": 1740,
      "太": 1741,
      "夫": 1742,
      "失": 1743,
      "头": 1744,
      "夸": 1745,
      "夺": 1746,
      "奇": 1747,
      "奉": 1748,
      "奊": 1749,
      "奎": 1750,
      "契": 1751,
      "奔": 1752,
      "奖": 1753,
      "奥": 1754,
      "奮": 1755,
      "女": 1756,
      "她": 1757,
      "好": 1758,
      "奾": 1759,
      "如": 1760,
      "妇": 1761,
      "妈": 1762,
      "妔": 1763,
      "妕": 1764,
      "妗": 1765,
      "妙": 1766,
      "妚": 1767,
      "妥": 1768,
      "妨": 1769,
      "妫": 1770,
      "妭": 1771,
      "妮": 1772,
      "妹": 1773,
      "妻": 1774,
      "姂": 1775,
      "姆": 1776,
      "姈": 1777,
      "姉": 1778,
      "姊": 1779,
      "始": 1780,
      "姏": 1781,
      "姐": 1782,
      "姒": 1783,
      "委": 1784,
      "姘": 1785,
      "姙": 1786,
      "姛": 1787,
      "姝": 1788,
      "姞": 1789,
      "姟": 1790,
      "姣": 1791,
      "姤": 1792,
      "姩": 1793,
      "姪": 1794,
      "姫": 1795,
      "姱": 1796,
      "姵": 1797,
      "姸": 1798,
      "姹": 1799,
      "姻": 1800,
      "姽": 1801,
      "姿": 1802,
      "威": 1803,
      "娆": 1804,
      "娉": 1805,
      "娊": 1806,
      "娌": 1807,
      "娑": 1808,
      "娱": 1809,
      "娲": 1810,
      "娴": 1811,
      "娶": 1812,
      "婁": 1813,
      "婂": 1814,
      "婃": 1815,
      "婄": 1816,
      "婅": 1817,
      "婆": 1818,
      "婇": 1819,
      "婊": 1820,
      "婏": 1821,
      "婚": 1822,
      "婢": 1823,
      "媓": 1824,
      "媯": 1825,
      "嫁": 1826,
      "嫓": 1827,
      "嫢": 1828,
      "嫨": 1829,
      "嫳": 1830,
      "嫾": 1831,
      "嬁": 1832,
      "嬨": 1833,
      "嬩": 1834,
      "嬪": 1835,
      "嬫": 1836,
      "嬬": 1837,
      "嬭": 1838,
      "嬮": 1839,
      "嬶": 1840,
      "孉": 1841,
      "孊": 1842,
      "孋": 1843,
      "孌": 1844,
      "孍": 1845,
      "孎": 1846,
      "孏": 1847,
      "子": 1848,
      "孒": 1849,
      "孖": 1850,
      "字": 1851,
      "存": 1852,
      "孙": 1853,
      "孞": 1854,
      "孟": 1855,
      "孠": 1856,
      "孡": 1857,
      "学": 1858,
      "孧": 1859,
      "孨": 1860,
      "孩": 1861,
      "孫": 1862,
      "孭": 1863,
      "孲": 1864,
      "孴": 1865,
      "學": 1866,
      "孻": 1867,
      "宀": 1868,
      "宁": 1869,
      "它": 1870,
      "宇": 1871,
      "守": 1872,
      "安": 1873,
      "完": 1874,
      "宎": 1875,
      "宐": 1876,
      "宑": 1877,
      "宒": 1878,
      "宔": 1879,
      "宖": 1880,
      "宗": 1881,
      "官": 1882,
      "宙": 1883,
      "定": 1884,
      "宜": 1885,
      "宝": 1886,
      "实": 1887,
      "実": 1888,
      "宠": 1889,
      "审": 1890,
      "客": 1891,
      "宣": 1892,
      "室": 1893,
      "宧": 1894,
      "宨": 1895,
      "宫": 1896,
      "宭": 1897,
      "宮": 1898,
      "宯": 1899,
      "宱": 1900,
      "宲": 1901,
      "害": 1902,
      "宴": 1903,
      "家": 1904,
      "宷": 1905,
      "宸": 1906,
      "容": 1907,
      "宺": 1908,
      "宻": 1909,
      "宼": 1910,
      "宽": 1911,
      "宿": 1912,
      "寀": 1913,
      "寂": 1914,
      "寃": 1915,
      "寄": 1916,
      "密": 1917,
      "寉": 1918,
      "富": 1919,
      "寒": 1920,
      "寓": 1921,
      "寔": 1922,
      "寖": 1923,
      "寘": 1924,
      "寚": 1925,
      "寞": 1926,
      "察": 1927,
      "寡": 1928,
      "寤": 1929,
      "寮": 1930,
      "寰": 1931,
      "寲": 1932,
      "寳": 1933,
      "寶": 1934,
      "寷": 1935,
      "寸": 1936,
      "对": 1937,
      "寺": 1938,
      "导": 1939,
      "寿": 1940,
      "封": 1941,
      "射": 1942,
      "将": 1943,
      "將": 1944,
      "尊": 1945,
      "對": 1946,
      "小": 1947,
      "尐": 1948,
      "少": 1949,
      "尔": 1950,
      "尖": 1951,
      "尚": 1952,
      "就": 1953,
      "尺": 1954,
      "尼": 1955,
      "尽": 1956,
      "尾": 1957,
      "局": 1958,
      "层": 1959,
      "居": 1960,
      "屈": 1961,
      "屋": 1962,
      "展": 1963,
      "属": 1964,
      "屠": 1965,
      "履": 1966,
      "山": 1967,
      "屸": 1968,
      "屻": 1969,
      "屼": 1970,
      "屽": 1971,
      "屾": 1972,
      "岀": 1973,
      "岁": 1974,
      "岃": 1975,
      "岄": 1976,
      "岋": 1977,
      "岛": 1978,
      "岡": 1979,
      "岩": 1980,
      "岯": 1981,
      "岴": 1982,
      "岺": 1983,
      "岻": 1984,
      "峂": 1985,
      "峚": 1986,
      "峛": 1987,
      "峜": 1988,
      "峝": 1989,
      "峞": 1990,
      "峟": 1991,
      "峠": 1992,
      "峢": 1993,
      "峣": 1994,
      "峧": 1995,
      "峩": 1996,
      "峫": 1997,
      "峬": 1998,
      "峮": 1999,
      "峯": 2000,
      "峰": 2001,
      "峱": 2002,
      "峳": 2003,
      "峴": 2004,
      "峵": 2005,
      "峸": 2006,
      "峺": 2007,
      "崇": 2008,
      "崈": 2009,
      "崌": 2010,
      "崍": 2011,
      "崎": 2012,
      "崏": 2013,
      "崕": 2014,
      "崟": 2015,
      "崥": 2016,
      "崱": 2017,
      "崳": 2018,
      "崸": 2019,
      "崼": 2020,
      "嵁": 2021,
      "嵂": 2022,
      "嵄": 2023,
      "嵆": 2024,
      "嶃": 2025,
      "嶄": 2026,
      "嶅": 2027,
      "嶆": 2028,
      "嶇": 2029,
      "嶈": 2030,
      "嶉": 2031,
      "嶏": 2032,
      "嶢": 2033,
      "嶣": 2034,
      "嶤": 2035,
      "嶥": 2036,
      "嶦": 2037,
      "嶧": 2038,
      "嶨": 2039,
      "嶩": 2040,
      "嶪": 2041,
      "嶫": 2042,
      "嶬": 2043,
      "嶭": 2044,
      "嶮": 2045,
      "嶯": 2046,
      "嶰": 2047,
      "嶱": 2048,
      "嶲": 2049,
      "嶳": 2050,
      "嶴": 2051,
      "嶵": 2052,
      "嶸": 2053,
      "嶹": 2054,
      "嶺": 2055,
      "嶻": 2056,
      "嶿": 2057,
      "巃": 2058,
      "巈": 2059,
      "巊": 2060,
      "巋": 2061,
      "巌": 2062,
      "巐": 2063,
      "巑": 2064,
      "巒": 2065,
      "巘": 2066,
      "川": 2067,
      "州": 2068,
      "工": 2069,
      "左": 2070,
      "巧": 2071,
      "巨": 2072,
      "差": 2073,
      "己": 2074,
      "已": 2075,
      "巴": 2076,
      "巼": 2077,
      "巿": 2078,
      "币": 2079,
      "市": 2080,
      "布": 2081,
      "帇": 2082,
      "师": 2083,
      "希": 2084,
      "帓": 2085,
      "带": 2086,
      "帧": 2087,
      "師": 2088,
      "席": 2089,
      "帮": 2090,
      "常": 2091,
      "帺": 2092,
      "帾": 2093,
      "帿": 2094,
      "幆": 2095,
      "幇": 2096,
      "幓": 2097,
      "幕": 2098,
      "幢": 2099,
      "干": 2100,
      "平": 2101,
      "年": 2102,
      "并": 2103,
      "幸": 2104,
      "幽": 2105,
      "广": 2106,
      "床": 2107,
      "序": 2108,
      "库": 2109,
      "应": 2110,
      "底": 2111,
      "店": 2112,
      "庘": 2113,
      "府": 2114,
      "庝": 2115,
      "废": 2116,
      "庡": 2117,
      "庢": 2118,
      "庣": 2119,
      "庤": 2120,
      "度": 2121,
      "庨": 2122,
      "庯": 2123,
      "康": 2124,
      "庸": 2125,
      "廋": 2126,
      "廙": 2127,
      "廣": 2128,
      "廧": 2129,
      "廰": 2130,
      "廱": 2131,
      "廲": 2132,
      "延": 2133,
      "廷": 2134,
      "廸": 2135,
      "建": 2136,
      "廻": 2137,
      "廼": 2138,
      "开": 2139,
      "弁": 2140,
      "异": 2141,
      "弌": 2142,
      "弍": 2143,
      "式": 2144,
      "弐": 2145,
      "弒": 2146,
      "弔": 2147,
      "引": 2148,
      "弗": 2149,
      "弚": 2150,
      "张": 2151,
      "弬": 2152,
      "弱": 2153,
      "張": 2154,
      "強": 2155,
      "弸": 2156,
      "强": 2157,
      "弻": 2158,
      "弽": 2159,
      "彂": 2160,
      "彇": 2161,
      "彈": 2162,
      "彉": 2163,
      "彍": 2164,
      "归": 2165,
      "当": 2166,
      "彔": 2167,
      "录": 2168,
      "彛": 2169,
      "形": 2170,
      "彧": 2171,
      "彩": 2172,
      "影": 2173,
      "彲": 2174,
      "往": 2175,
      "征": 2176,
      "徃": 2177,
      "径": 2178,
      "待": 2179,
      "很": 2180,
      "律": 2181,
      "後": 2182,
      "徐": 2183,
      "徒": 2184,
      "得": 2185,
      "從": 2186,
      "御": 2187,
      "復": 2188,
      "微": 2189,
      "徳": 2190,
      "德": 2191,
      "徽": 2192,
      "心": 2193,
      "必": 2194,
      "忊": 2195,
      "忋": 2196,
      "忌": 2197,
      "忍": 2198,
      "忎": 2199,
      "忓": 2200,
      "忔": 2201,
      "忕": 2202,
      "志": 2203,
      "忙": 2204,
      "忚": 2205,
      "忛": 2206,
      "忠": 2207,
      "忥": 2208,
      "忧": 2209,
      "快": 2210,
      "念": 2211,
      "忽": 2212,
      "怀": 2213,
      "态": 2214,
      "怎": 2215,
      "怕": 2216,
      "思": 2217,
      "急": 2218,
      "性": 2219,
      "怨": 2220,
      "怯": 2221,
      "总": 2222,
      "怾": 2223,
      "恋": 2224,
      "恒": 2225,
      "恨": 2226,
      "恩": 2227,
      "息": 2228,
      "恰": 2229,
      "恼": 2230,
      "悆": 2231,
      "悊": 2232,
      "悍": 2233,
      "悎": 2234,
      "悓": 2235,
      "悔": 2236,
      "悕": 2237,
      "悗": 2238,
      "悜": 2239,
      "悟": 2240,
      "患": 2241,
      "悧": 2242,
      "您": 2243,
      "悪": 2244,
      "惀": 2245,
      "惁": 2246,
      "惂": 2247,
      "情": 2248,
      "惉": 2249,
      "惊": 2250,
      "惎": 2251,
      "惛": 2252,
      "惜": 2253,
      "惧": 2254,
      "惮": 2255,
      "惯": 2256,
      "惰": 2257,
      "想": 2258,
      "愁": 2259,
      "愉": 2260,
      "意": 2261,
      "愚": 2262,
      "愛": 2263,
      "感": 2264,
      "愤": 2265,
      "愩": 2266,
      "愪": 2267,
      "愬": 2268,
      "愭": 2269,
      "愮": 2270,
      "愯": 2271,
      "愰": 2272,
      "愶": 2273,
      "愿": 2274,
      "慎": 2275,
      "慕": 2276,
      "慡": 2277,
      "慢": 2278,
      "慧": 2279,
      "慨": 2280,
      "慼": 2281,
      "憂": 2282,
      "憈": 2283,
      "憋": 2284,
      "憟": 2285,
      "憡": 2286,
      "憳": 2287,
      "憾": 2288,
      "懂": 2289,
      "戊": 2290,
      "成": 2291,
      "我": 2292,
      "戒": 2293,
      "或": 2294,
      "战": 2295,
      "戙": 2296,
      "戜": 2297,
      "戝": 2298,
      "戞": 2299,
      "戠": 2300,
      "戣": 2301,
      "戦": 2302,
      "戭": 2303,
      "戯": 2304,
      "戰": 2305,
      "户": 2306,
      "房": 2307,
      "所": 2308,
      "手": 2309,
      "才": 2310,
      "扑": 2311,
      "打": 2312,
      "托": 2313,
      "扩": 2314,
      "扭": 2315,
      "扮": 2316,
      "扰": 2317,
      "批": 2318,
      "找": 2319,
      "承": 2320,
      "技": 2321,
      "把": 2322,
      "抋": 2323,
      "抑": 2324,
      "抖": 2325,
      "抗": 2326,
      "抣": 2327,
      "护": 2328,
      "报": 2329,
      "披": 2330,
      "抯": 2331,
      "抰": 2332,
      "抽": 2333,
      "拉": 2334,
      "拌": 2335,
      "拏": 2336,
      "拓": 2337,
      "拜": 2338,
      "拟": 2339,
      "拤": 2340,
      "拥": 2341,
      "拨": 2342,
      "择": 2343,
      "括": 2344,
      "拰": 2345,
      "拷": 2346,
      "拼": 2347,
      "持": 2348,
      "挄": 2349,
      "指": 2350,
      "按": 2351,
      "挎": 2352,
      "挑": 2353,
      "挚": 2354,
      "挛": 2355,
      "挥": 2356,
      "挩": 2357,
      "振": 2358,
      "挶": 2359,
      "捐": 2360,
      "捕": 2361,
      "换": 2362,
      "捣": 2363,
      "据": 2364,
      "捷": 2365,
      "授": 2366,
      "掍": 2367,
      "掑": 2368,
      "排": 2369,
      "掓": 2370,
      "掔": 2371,
      "掞": 2372,
      "探": 2373,
      "接": 2374,
      "控": 2375,
      "措": 2376,
      "掳": 2377,
      "掺": 2378,
      "掾": 2379,
      "揂": 2380,
      "揃": 2381,
      "揅": 2382,
      "揉": 2383,
      "描": 2384,
      "提": 2385,
      "揑": 2386,
      "插": 2387,
      "揙": 2388,
      "揚": 2389,
      "揜": 2390,
      "揣": 2391,
      "揩": 2392,
      "揪": 2393,
      "揳": 2394,
      "揷": 2395,
      "揺": 2396,
      "搁": 2397,
      "搂": 2398,
      "搃": 2399,
      "損": 2400,
      "搏": 2401,
      "搐": 2402,
      "搕": 2403,
      "搘": 2404,
      "搜": 2405,
      "搞": 2406,
      "搦": 2407,
      "搧": 2408,
      "搬": 2409,
      "搯": 2410,
      "搴": 2411,
      "携": 2412,
      "摆": 2413,
      "摐": 2414,
      "摜": 2415,
      "摝": 2416,
      "摢": 2417,
      "摩": 2418,
      "摱": 2419,
      "撮": 2420,
      "撯": 2421,
      "撲": 2422,
      "撳": 2423,
      "撴": 2424,
      "撻": 2425,
      "擄": 2426,
      "操": 2427,
      "擜": 2428,
      "擝": 2429,
      "擟": 2430,
      "擠": 2431,
      "擡": 2432,
      "擣": 2433,
      "擥": 2434,
      "擧": 2435,
      "擨": 2436,
      "擩": 2437,
      "擪": 2438,
      "擫": 2439,
      "擭": 2440,
      "擯": 2441,
      "擱": 2442,
      "擲": 2443,
      "擳": 2444,
      "擴": 2445,
      "擶": 2446,
      "擹": 2447,
      "攁": 2448,
      "攂": 2449,
      "攃": 2450,
      "攄": 2451,
      "攅": 2452,
      "攆": 2453,
      "攇": 2454,
      "攈": 2455,
      "攊": 2456,
      "攋": 2457,
      "攌": 2458,
      "攍": 2459,
      "攎": 2460,
      "攏": 2461,
      "攐": 2462,
      "攑": 2463,
      "攓": 2464,
      "攔": 2465,
      "攕": 2466,
      "攖": 2467,
      "攗": 2468,
      "攙": 2469,
      "攚": 2470,
      "攜": 2471,
      "攪": 2472,
      "支": 2473,
      "收": 2474,
      "改": 2475,
      "攽": 2476,
      "放": 2477,
      "政": 2478,
      "故": 2479,
      "效": 2480,
      "敌": 2481,
      "敏": 2482,
      "救": 2483,
      "敓": 2484,
      "教": 2485,
      "敜": 2486,
      "敞": 2487,
      "散": 2488,
      "敤": 2489,
      "敬": 2490,
      "数": 2491,
      "敱": 2492,
      "整": 2493,
      "敹": 2494,
      "敺": 2495,
      "敼": 2496,
      "斁": 2497,
      "文": 2498,
      "斑": 2499,
      "斗": 2500,
      "料": 2501,
      "斟": 2502,
      "斤": 2503,
      "断": 2504,
      "斯": 2505,
      "新": 2506,
      "方": 2507,
      "斺": 2508,
      "斻": 2509,
      "施": 2510,
      "斿": 2511,
      "旀": 2512,
      "旁": 2513,
      "旂": 2514,
      "旅": 2515,
      "旇": 2516,
      "旋": 2517,
      "族": 2518,
      "旓": 2519,
      "无": 2520,
      "日": 2521,
      "旧": 2522,
      "早": 2523,
      "时": 2524,
      "昂": 2525,
      "昌": 2526,
      "明": 2527,
      "昏": 2528,
      "易": 2529,
      "星": 2530,
      "春": 2531,
      "昦": 2532,
      "昭": 2533,
      "昮": 2534,
      "是": 2535,
      "昲": 2536,
      "显": 2537,
      "晈": 2538,
      "晚": 2539,
      "晩": 2540,
      "晫": 2541,
      "普": 2542,
      "景": 2543,
      "晱": 2544,
      "晴": 2545,
      "晶": 2546,
      "智": 2547,
      "暀": 2548,
      "暟": 2549,
      "暣": 2550,
      "暩": 2551,
      "暰": 2552,
      "暱": 2553,
      "暴": 2554,
      "曗": 2555,
      "曚": 2556,
      "曞": 2557,
      "曟": 2558,
      "曠": 2559,
      "曡": 2560,
      "曢": 2561,
      "曪": 2562,
      "曲": 2563,
      "更": 2564,
      "曹": 2565,
      "曼": 2566,
      "曾": 2567,
      "最": 2568,
      "會": 2569,
      "月": 2570,
      "有": 2571,
      "朋": 2572,
      "服": 2573,
      "望": 2574,
      "朝": 2575,
      "期": 2576,
      "木": 2577,
      "未": 2578,
      "本": 2579,
      "术": 2580,
      "朱": 2581,
      "朴": 2582,
      "朵": 2583,
      "机": 2584,
      "杀": 2585,
      "杂": 2586,
      "权": 2587,
      "杆": 2588,
      "杈": 2589,
      "李": 2590,
      "材": 2591,
      "村": 2592,
      "杞": 2593,
      "束": 2594,
      "杠": 2595,
      "条": 2596,
      "杢": 2597,
      "来": 2598,
      "杨": 2599,
      "杩": 2600,
      "杰": 2601,
      "東": 2602,
      "杸": 2603,
      "松": 2604,
      "板": 2605,
      "极": 2606,
      "枃": 2607,
      "构": 2608,
      "析": 2609,
      "枒": 2610,
      "林": 2611,
      "果": 2612,
      "枩": 2613,
      "枫": 2614,
      "枱": 2615,
      "架": 2616,
      "柉": 2617,
      "柊": 2618,
      "柏": 2619,
      "染": 2620,
      "柔": 2621,
      "柟": 2622,
      "柠": 2623,
      "查": 2624,
      "柯": 2625,
      "柱": 2626,
      "柴": 2627,
      "栅": 2628,
      "标": 2629,
      "树": 2630,
      "校": 2631,
      "栤": 2632,
      "栥": 2633,
      "栦": 2634,
      "栧": 2635,
      "栨": 2636,
      "株": 2637,
      "栫": 2638,
      "栬": 2639,
      "栭": 2640,
      "栵": 2641,
      "样": 2642,
      "核": 2643,
      "根": 2644,
      "格": 2645,
      "桂": 2646,
      "案": 2647,
      "桜": 2648,
      "梦": 2649,
      "梨": 2650,
      "械": 2651,
      "梳": 2652,
      "梾": 2653,
      "检": 2654,
      "棁": 2655,
      "棄": 2656,
      "棋": 2657,
      "棒": 2658,
      "棕": 2659,
      "棤": 2660,
      "棬": 2661,
      "棭": 2662,
      "森": 2663,
      "棰": 2664,
      "棶": 2665,
      "椂": 2666,
      "椃": 2667,
      "椈": 2668,
      "椋": 2669,
      "植": 2670,
      "椤": 2671,
      "椹": 2672,
      "椾": 2673,
      "椿": 2674,
      "楀": 2675,
      "楁": 2676,
      "楂": 2677,
      "楃": 2678,
      "楄": 2679,
      "楅": 2680,
      "楋": 2681,
      "楔": 2682,
      "楗": 2683,
      "楝": 2684,
      "楠": 2685,
      "楢": 2686,
      "楤": 2687,
      "楥": 2688,
      "楧": 2689,
      "楨": 2690,
      "楩": 2691,
      "楪": 2692,
      "楬": 2693,
      "業": 2694,
      "楯": 2695,
      "楲": 2696,
      "楳": 2697,
      "楴": 2698,
      "極": 2699,
      "楶": 2700,
      "楹": 2701,
      "楺": 2702,
      "楻": 2703,
      "楼": 2704,
      "楽": 2705,
      "楾": 2706,
      "楿": 2707,
      "榁": 2708,
      "概": 2709,
      "榃": 2710,
      "榇": 2711,
      "榈": 2712,
      "榊": 2713,
      "榎": 2714,
      "榓": 2715,
      "榖": 2716,
      "榗": 2717,
      "榙": 2718,
      "榚": 2719,
      "榛": 2720,
      "榝": 2721,
      "榞": 2722,
      "榟": 2723,
      "榠": 2724,
      "榡": 2725,
      "榣": 2726,
      "榤": 2727,
      "榥": 2728,
      "榦": 2729,
      "榩": 2730,
      "榫": 2731,
      "榬": 2732,
      "榮": 2733,
      "榯": 2734,
      "榰": 2735,
      "榲": 2736,
      "榳": 2737,
      "榶": 2738,
      "槑": 2739,
      "槒": 2740,
      "槗": 2741,
      "槦": 2742,
      "槬": 2743,
      "槴": 2744,
      "槸": 2745,
      "槻": 2746,
      "槾": 2747,
      "樉": 2748,
      "樋": 2749,
      "樗": 2750,
      "模": 2751,
      "樱": 2752,
      "樵": 2753,
      "樸": 2754,
      "樹": 2755,
      "樺": 2756,
      "樻": 2757,
      "樼": 2758,
      "樿": 2759,
      "橈": 2760,
      "橋": 2761,
      "橝": 2762,
      "橞": 2763,
      "機": 2764,
      "橡": 2765,
      "橢": 2766,
      "橣": 2767,
      "橤": 2768,
      "橦": 2769,
      "橧": 2770,
      "橪": 2771,
      "橫": 2772,
      "橬": 2773,
      "橭": 2774,
      "橮": 2775,
      "橲": 2776,
      "橳": 2777,
      "橴": 2778,
      "橶": 2779,
      "檃": 2780,
      "檅": 2781,
      "檆": 2782,
      "檇": 2783,
      "檈": 2784,
      "檉": 2785,
      "檊": 2786,
      "檋": 2787,
      "檌": 2788,
      "檒": 2789,
      "檓": 2790,
      "檔": 2791,
      "檕": 2792,
      "檖": 2793,
      "檙": 2794,
      "檚": 2795,
      "檛": 2796,
      "檝": 2797,
      "檞": 2798,
      "檬": 2799,
      "檯": 2800,
      "檷": 2801,
      "檺": 2802,
      "櫄": 2803,
      "櫌": 2804,
      "櫎": 2805,
      "櫓": 2806,
      "櫙": 2807,
      "櫣": 2808,
      "櫤": 2809,
      "櫥": 2810,
      "櫧": 2811,
      "櫨": 2812,
      "權": 2813,
      "欌": 2814,
      "欎": 2815,
      "欏": 2816,
      "欐": 2817,
      "欑": 2818,
      "欒": 2819,
      "欓": 2820,
      "欙": 2821,
      "次": 2822,
      "欢": 2823,
      "欰": 2824,
      "欲": 2825,
      "欳": 2826,
      "欴": 2827,
      "欵": 2828,
      "欸": 2829,
      "欺": 2830,
      "欻": 2831,
      "欼": 2832,
      "歀": 2833,
      "歁": 2834,
      "歂": 2835,
      "歄": 2836,
      "歉": 2837,
      "歋": 2838,
      "歌": 2839,
      "歍": 2840,
      "歐": 2841,
      "歒": 2842,
      "歛": 2843,
      "歡": 2844,
      "止": 2845,
      "正": 2846,
      "此": 2847,
      "步": 2848,
      "武": 2849,
      "歧": 2850,
      "歨": 2851,
      "歩": 2852,
      "歬": 2853,
      "歯": 2854,
      "歰": 2855,
      "歳": 2856,
      "歵": 2857,
      "歸": 2858,
      "死": 2859,
      "殑": 2860,
      "殕": 2861,
      "殖": 2862,
      "殢": 2863,
      "殰": 2864,
      "段": 2865,
      "殷": 2866,
      "毊": 2867,
      "母": 2868,
      "每": 2869,
      "毒": 2870,
      "比": 2871,
      "毚": 2872,
      "毛": 2873,
      "毦": 2874,
      "毯": 2875,
      "氏": 2876,
      "民": 2877,
      "气": 2878,
      "氟": 2879,
      "氣": 2880,
      "氦": 2881,
      "氧": 2882,
      "氨": 2883,
      "氫": 2884,
      "氬": 2885,
      "氭": 2886,
      "氮": 2887,
      "氯": 2888,
      "氱": 2889,
      "氳": 2890,
      "水": 2891,
      "永": 2892,
      "氾": 2893,
      "汁": 2894,
      "求": 2895,
      "汇": 2896,
      "汉": 2897,
      "汗": 2898,
      "江": 2899,
      "污": 2900,
      "汤": 2901,
      "汭": 2902,
      "汽": 2903,
      "沃": 2904,
      "沈": 2905,
      "沉": 2906,
      "沐": 2907,
      "沘": 2908,
      "沙": 2909,
      "沚": 2910,
      "沟": 2911,
      "没": 2912,
      "沨": 2913,
      "沬": 2914,
      "河": 2915,
      "沶": 2916,
      "沷": 2917,
      "油": 2918,
      "治": 2919,
      "況": 2920,
      "泂": 2921,
      "泃": 2922,
      "泄": 2923,
      "泈": 2924,
      "泌": 2925,
      "泍": 2926,
      "法": 2927,
      "波": 2928,
      "泦": 2929,
      "泧": 2930,
      "注": 2931,
      "泪": 2932,
      "泫": 2933,
      "泭": 2934,
      "泲": 2935,
      "泳": 2936,
      "洁": 2937,
      "洃": 2938,
      "洋": 2939,
      "洖": 2940,
      "洛": 2941,
      "洜": 2942,
      "洟": 2943,
      "洪": 2944,
      "洰": 2945,
      "洲": 2946,
      "活": 2947,
      "洿": 2948,
      "流": 2949,
      "浂": 2950,
      "浆": 2951,
      "浉": 2952,
      "测": 2953,
      "济": 2954,
      "浓": 2955,
      "浗": 2956,
      "浜": 2957,
      "浠": 2958,
      "浣": 2959,
      "浦": 2960,
      "浪": 2961,
      "海": 2962,
      "浼": 2963,
      "消": 2964,
      "涉": 2965,
      "涓": 2966,
      "涔": 2967,
      "涖": 2968,
      "涗": 2969,
      "涘": 2970,
      "涙": 2971,
      "涚": 2972,
      "涜": 2973,
      "涡": 2974,
      "涢": 2975,
      "润": 2976,
      "涨": 2977,
      "涱": 2978,
      "液": 2979,
      "淀": 2980,
      "淇": 2981,
      "淎": 2982,
      "淏": 2983,
      "淐": 2984,
      "淒": 2985,
      "淓": 2986,
      "淔": 2987,
      "淕": 2988,
      "淗": 2989,
      "淚": 2990,
      "淛": 2991,
      "淜": 2992,
      "淟": 2993,
      "淡": 2994,
      "淢": 2995,
      "淣": 2996,
      "淤": 2997,
      "淥": 2998,
      "淧": 2999,
      "淨": 3000,
      "淩": 3001,
      "淪": 3002,
      "淬": 3003,
      "淭": 3004,
      "淮": 3005,
      "淯": 3006,
      "淰": 3007,
      "淲": 3008,
      "淴": 3009,
      "淵": 3010,
      "混": 3011,
      "淸": 3012,
      "淿": 3013,
      "渁": 3014,
      "渂": 3015,
      "渃": 3016,
      "渄": 3017,
      "清": 3018,
      "渆": 3019,
      "渇": 3020,
      "済": 3021,
      "渉": 3022,
      "渋": 3023,
      "渏": 3024,
      "渒": 3025,
      "渓": 3026,
      "渕": 3027,
      "渗": 3028,
      "渘": 3029,
      "渙": 3030,
      "渚": 3031,
      "減": 3032,
      "渜": 3033,
      "渞": 3034,
      "渟": 3035,
      "渢": 3036,
      "渦": 3037,
      "渧": 3038,
      "渨": 3039,
      "温": 3040,
      "測": 3041,
      "渮": 3042,
      "港": 3043,
      "渶": 3044,
      "游": 3045,
      "渹": 3046,
      "湀": 3047,
      "湁": 3048,
      "湅": 3049,
      "湍": 3050,
      "湖": 3051,
      "湜": 3052,
      "湝": 3053,
      "湡": 3054,
      "湥": 3055,
      "湪": 3056,
      "湭": 3057,
      "湰": 3058,
      "湳": 3059,
      "湴": 3060,
      "湵": 3061,
      "湶": 3062,
      "湿": 3063,
      "満": 3064,
      "溂": 3065,
      "溍": 3066,
      "源": 3067,
      "溶": 3068,
      "溾": 3069,
      "溿": 3070,
      "滀": 3071,
      "滃": 3072,
      "滄": 3073,
      "滅": 3074,
      "滆": 3075,
      "滐": 3076,
      "滑": 3077,
      "滚": 3078,
      "滤": 3079,
      "滱": 3080,
      "滲": 3081,
      "滳": 3082,
      "滵": 3083,
      "滶": 3084,
      "滷": 3085,
      "滺": 3086,
      "滻": 3087,
      "滼": 3088,
      "滾": 3089,
      "滿": 3090,
      "漀": 3091,
      "漁": 3092,
      "漂": 3093,
      "漃": 3094,
      "漇": 3095,
      "漈": 3096,
      "漌": 3097,
      "演": 3098,
      "漚": 3099,
      "漛": 3100,
      "漜": 3101,
      "漞": 3102,
      "漟": 3103,
      "漢": 3104,
      "漣": 3105,
      "漨": 3106,
      "漫": 3107,
      "漮": 3108,
      "漰": 3109,
      "漴": 3110,
      "漵": 3111,
      "漷": 3112,
      "漸": 3113,
      "漺": 3114,
      "潃": 3115,
      "潅": 3116,
      "潈": 3117,
      "潎": 3118,
      "潗": 3119,
      "潫": 3120,
      "潰": 3121,
      "潵": 3122,
      "澅": 3123,
      "澛": 3124,
      "澧": 3125,
      "澳": 3126,
      "澶": 3127,
      "澹": 3128,
      "濂": 3129,
      "濃": 3130,
      "濄": 3131,
      "濅": 3132,
      "濆": 3133,
      "濇": 3134,
      "濈": 3135,
      "濋": 3136,
      "濓": 3137,
      "濞": 3138,
      "濟": 3139,
      "濡": 3140,
      "濮": 3141,
      "瀛": 3142,
      "瀬": 3143,
      "瀵": 3144,
      "瀷": 3145,
      "瀹": 3146,
      "瀽": 3147,
      "灉": 3148,
      "灏": 3149,
      "灒": 3150,
      "灞": 3151,
      "灣": 3152,
      "灦": 3153,
      "火": 3154,
      "灭": 3155,
      "灯": 3156,
      "灵": 3157,
      "灶": 3158,
      "炎": 3159,
      "炕": 3160,
      "炪": 3161,
      "炬": 3162,
      "炰": 3163,
      "炲": 3164,
      "炴": 3165,
      "炵": 3166,
      "炶": 3167,
      "点": 3168,
      "為": 3169,
      "炼": 3170,
      "炽": 3171,
      "烇": 3172,
      "烏": 3173,
      "烘": 3174,
      "烝": 3175,
      "烞": 3176,
      "烠": 3177,
      "烦": 3178,
      "烧": 3179,
      "烪": 3180,
      "热": 3181,
      "烮": 3182,
      "烯": 3183,
      "烳": 3184,
      "烴": 3185,
      "烵": 3186,
      "烶": 3187,
      "烷": 3188,
      "烸": 3189,
      "烹": 3190,
      "烻": 3191,
      "烼": 3192,
      "烽": 3193,
      "焀": 3194,
      "焂": 3195,
      "焠": 3196,
      "無": 3197,
      "焪": 3198,
      "焰": 3199,
      "然": 3200,
      "煋": 3201,
      "煎": 3202,
      "煡": 3203,
      "煤": 3204,
      "照": 3205,
      "煮": 3206,
      "煴": 3207,
      "煶": 3208,
      "熃": 3209,
      "熊": 3210,
      "熙": 3211,
      "熲": 3212,
      "熶": 3213,
      "熷": 3214,
      "熸": 3215,
      "熺": 3216,
      "熻": 3217,
      "熼": 3218,
      "燂": 3219,
      "燃": 3220,
      "燒": 3221,
      "燕": 3222,
      "燗": 3223,
      "燙": 3224,
      "營": 3225,
      "燭": 3226,
      "爇": 3227,
      "爐": 3228,
      "爪": 3229,
      "爱": 3230,
      "爲": 3231,
      "父": 3232,
      "爸": 3233,
      "爺": 3234,
      "爾": 3235,
      "片": 3236,
      "版": 3237,
      "牎": 3238,
      "牙": 3239,
      "牛": 3240,
      "物": 3241,
      "牬": 3242,
      "牱": 3243,
      "牲": 3244,
      "牳": 3245,
      "牴": 3246,
      "牸": 3247,
      "特": 3248,
      "牺": 3249,
      "犬": 3250,
      "犮": 3251,
      "犯": 3252,
      "犱": 3253,
      "犲": 3254,
      "犳": 3255,
      "犵": 3256,
      "状": 3257,
      "犹": 3258,
      "犺": 3259,
      "犻": 3260,
      "狂": 3261,
      "狅": 3262,
      "狗": 3263,
      "狡": 3264,
      "狥": 3265,
      "独": 3266,
      "狮": 3267,
      "狻": 3268,
      "猊": 3269,
      "猜": 3270,
      "猥": 3271,
      "猦": 3272,
      "猫": 3273,
      "献": 3274,
      "猴": 3275,
      "猹": 3276,
      "猼": 3277,
      "獅": 3278,
      "獙": 3279,
      "獚": 3280,
      "獰": 3281,
      "獵": 3282,
      "率": 3283,
      "玉": 3284,
      "王": 3285,
      "玩": 3286,
      "环": 3287,
      "现": 3288,
      "玻": 3289,
      "珌": 3290,
      "珍": 3291,
      "珛": 3292,
      "珠": 3293,
      "珨": 3294,
      "珮": 3295,
      "珯": 3296,
      "珵": 3297,
      "珷": 3298,
      "現": 3299,
      "球": 3300,
      "理": 3301,
      "琚": 3302,
      "琛": 3303,
      "琼": 3304,
      "瑁": 3305,
      "瑔": 3306,
      "瑕": 3307,
      "瑗": 3308,
      "瑙": 3309,
      "瑞": 3310,
      "瑪": 3311,
      "瑰": 3312,
      "瑷": 3313,
      "璀": 3314,
      "璁": 3315,
      "璃": 3316,
      "璇": 3317,
      "璋": 3318,
      "璐": 3319,
      "璜": 3320,
      "璞": 3321,
      "璧": 3322,
      "璺": 3323,
      "瓑": 3324,
      "瓒": 3325,
      "瓙": 3326,
      "瓜": 3327,
      "瓟": 3328,
      "瓥": 3329,
      "瓦": 3330,
      "瓧": 3331,
      "瓨": 3332,
      "甘": 3333,
      "甜": 3334,
      "生": 3335,
      "用": 3336,
      "甫": 3337,
      "甯": 3338,
      "田": 3339,
      "由": 3340,
      "甲": 3341,
      "申": 3342,
      "电": 3343,
      "男": 3344,
      "甸": 3345,
      "画": 3346,
      "界": 3347,
      "畝": 3348,
      "畞": 3349,
      "畠": 3350,
      "略": 3351,
      "畨": 3352,
      "番": 3353,
      "畬": 3354,
      "當": 3355,
      "畸": 3356,
      "畺": 3357,
      "畻": 3358,
      "畼": 3359,
      "畽": 3360,
      "畾": 3361,
      "疂": 3362,
      "疄": 3363,
      "疆": 3364,
      "疑": 3365,
      "疛": 3366,
      "疪": 3367,
      "疫": 3368,
      "疯": 3369,
      "疲": 3370,
      "病": 3371,
      "症": 3372,
      "痉": 3373,
      "瘃": 3374,
      "瘎": 3375,
      "瘑": 3376,
      "瘔": 3377,
      "瘜": 3378,
      "瘝": 3379,
      "瘡": 3380,
      "瘧": 3381,
      "瘨": 3382,
      "瘫": 3383,
      "瘮": 3384,
      "瘯": 3385,
      "瘺": 3386,
      "瘽": 3387,
      "癁": 3388,
      "癌": 3389,
      "癢": 3390,
      "癩": 3391,
      "癸": 3392,
      "登": 3393,
      "白": 3394,
      "百": 3395,
      "的": 3396,
      "皆": 3397,
      "皇": 3398,
      "皑": 3399,
      "皟": 3400,
      "皬": 3401,
      "皮": 3402,
      "皯": 3403,
      "皵": 3404,
      "皷": 3405,
      "皻": 3406,
      "盆": 3407,
      "益": 3408,
      "盐": 3409,
      "监": 3410,
      "盘": 3411,
      "盛": 3412,
      "目": 3413,
      "盲": 3414,
      "直": 3415,
      "相": 3416,
      "省": 3417,
      "眉": 3418,
      "看": 3419,
      "眜": 3420,
      "真": 3421,
      "眠": 3422,
      "眬": 3423,
      "眮": 3424,
      "眳": 3425,
      "眴": 3426,
      "眻": 3427,
      "眼": 3428,
      "眽": 3429,
      "眿": 3430,
      "着": 3431,
      "睏": 3432,
      "睤": 3433,
      "睮": 3434,
      "瞝": 3435,
      "瞨": 3436,
      "瞫": 3437,
      "瞭": 3438,
      "瞾": 3439,
      "矁": 3440,
      "矇": 3441,
      "矞": 3442,
      "知": 3443,
      "矨": 3444,
      "矫": 3445,
      "短": 3446,
      "石": 3447,
      "矷": 3448,
      "矾": 3449,
      "矿": 3450,
      "砃": 3451,
      "砏": 3452,
      "砓": 3453,
      "研": 3454,
      "破": 3455,
      "础": 3456,
      "硅": 3457,
      "硉": 3458,
      "硕": 3459,
      "硦": 3460,
      "硬": 3461,
      "确": 3462,
      "硶": 3463,
      "硸": 3464,
      "碉": 3465,
      "碍": 3466,
      "碎": 3467,
      "碘": 3468,
      "碩": 3469,
      "碲": 3470,
      "碳": 3471,
      "磁": 3472,
      "磋": 3473,
      "磥": 3474,
      "礇": 3475,
      "示": 3476,
      "礼": 3477,
      "社": 3478,
      "祖": 3479,
      "祝": 3480,
      "神": 3481,
      "祥": 3482,
      "祫": 3483,
      "祯": 3484,
      "祴": 3485,
      "祿": 3486,
      "禂": 3487,
      "福": 3488,
      "禪": 3489,
      "禺": 3490,
      "离": 3491,
      "私": 3492,
      "种": 3493,
      "科": 3494,
      "秘": 3495,
      "租": 3496,
      "积": 3497,
      "称": 3498,
      "秴": 3499,
      "秺": 3500,
      "移": 3501,
      "程": 3502,
      "稡": 3503,
      "稳": 3504,
      "稵": 3505,
      "稻": 3506,
      "稽": 3507,
      "稿": 3508,
      "穘": 3509,
      "穩": 3510,
      "究": 3511,
      "穷": 3512,
      "空": 3513,
      "穿": 3514,
      "突": 3515,
      "窍": 3516,
      "窓": 3517,
      "窟": 3518,
      "立": 3519,
      "站": 3520,
      "竞": 3521,
      "竟": 3522,
      "章": 3523,
      "端": 3524,
      "竴": 3525,
      "竵": 3526,
      "竺": 3527,
      "竻": 3528,
      "竾": 3529,
      "笀": 3530,
      "笁": 3531,
      "笂": 3532,
      "笅": 3533,
      "笆": 3534,
      "笇": 3535,
      "笉": 3536,
      "笌": 3537,
      "笐": 3538,
      "笑": 3539,
      "笓": 3540,
      "笔": 3541,
      "笖": 3542,
      "笘": 3543,
      "笚": 3544,
      "笟": 3545,
      "笢": 3546,
      "第": 3547,
      "等": 3548,
      "筋": 3549,
      "筑": 3550,
      "答": 3551,
      "策": 3552,
      "筛": 3553,
      "筫": 3554,
      "简": 3555,
      "箍": 3556,
      "算": 3557,
      "箞": 3558,
      "箟": 3559,
      "管": 3560,
      "箣": 3561,
      "箯": 3562,
      "箰": 3563,
      "箱": 3564,
      "箶": 3565,
      "箹": 3566,
      "箼": 3567,
      "節": 3568,
      "篃": 3569,
      "範": 3570,
      "篒": 3571,
      "篓": 3572,
      "篯": 3573,
      "篱": 3574,
      "篽": 3575,
      "簛": 3576,
      "簡": 3577,
      "簥": 3578,
      "簨": 3579,
      "簩": 3580,
      "簬": 3581,
      "簮": 3582,
      "簯": 3583,
      "簱": 3584,
      "簲": 3585,
      "簳": 3586,
      "簵": 3587,
      "簺": 3588,
      "籈": 3589,
      "籍": 3590,
      "籘": 3591,
      "籞": 3592,
      "米": 3593,
      "类": 3594,
      "籼": 3595,
      "粈": 3596,
      "粉": 3597,
      "粍": 3598,
      "粏": 3599,
      "粐": 3600,
      "粒": 3601,
      "粓": 3602,
      "粖": 3603,
      "粗": 3604,
      "粙": 3605,
      "粛": 3606,
      "粠": 3607,
      "粡": 3608,
      "粨": 3609,
      "粬": 3610,
      "粯": 3611,
      "粰": 3612,
      "粺": 3613,
      "精": 3614,
      "糊": 3615,
      "糕": 3616,
      "糖": 3617,
      "糙": 3618,
      "糟": 3619,
      "糱": 3620,
      "系": 3621,
      "紊": 3622,
      "紑": 3623,
      "紒": 3624,
      "純": 3625,
      "紙": 3626,
      "級": 3627,
      "紝": 3628,
      "紞": 3629,
      "紟": 3630,
      "素": 3631,
      "紡": 3632,
      "索": 3633,
      "紥": 3634,
      "紦": 3635,
      "紧": 3636,
      "紨": 3637,
      "紪": 3638,
      "紫": 3639,
      "紬": 3640,
      "細": 3641,
      "紱": 3642,
      "紵": 3643,
      "紶": 3644,
      "紹": 3645,
      "結": 3646,
      "統": 3647,
      "綅": 3648,
      "綆": 3649,
      "綉": 3650,
      "綋": 3651,
      "綍": 3652,
      "綏": 3653,
      "綔": 3654,
      "綘": 3655,
      "総": 3656,
      "線": 3657,
      "緟": 3658,
      "緢": 3659,
      "緥": 3660,
      "緦": 3661,
      "緧": 3662,
      "編": 3663,
      "緫": 3664,
      "緱": 3665,
      "緵": 3666,
      "績": 3667,
      "繀": 3668,
      "繁": 3669,
      "繃": 3670,
      "繉": 3671,
      "繋": 3672,
      "繍": 3673,
      "繎": 3674,
      "繕": 3675,
      "繖": 3676,
      "繘": 3677,
      "繙": 3678,
      "红": 3679,
      "纤": 3680,
      "约": 3681,
      "级": 3682,
      "纭": 3683,
      "纯": 3684,
      "纰": 3685,
      "纽": 3686,
      "线": 3687,
      "绀": 3688,
      "绁": 3689,
      "绂": 3690,
      "组": 3691,
      "细": 3692,
      "织": 3693,
      "终": 3694,
      "绉": 3695,
      "绋": 3696,
      "绌": 3697,
      "绍": 3698,
      "经": 3699,
      "绐": 3700,
      "结": 3701,
      "绔": 3702,
      "绗": 3703,
      "绘": 3704,
      "给": 3705,
      "绛": 3706,
      "统": 3707,
      "绠": 3708,
      "绡": 3709,
      "继": 3710,
      "绫": 3711,
      "续": 3712,
      "绮": 3713,
      "绯": 3714,
      "绱": 3715,
      "维": 3716,
      "绵": 3717,
      "绻": 3718,
      "综": 3719,
      "绾": 3720,
      "缁": 3721,
      "缂": 3722,
      "缃": 3723,
      "缇": 3724,
      "缈": 3725,
      "缉": 3726,
      "缓": 3727,
      "缔": 3728,
      "编": 3729,
      "缠": 3730,
      "缩": 3731,
      "缮": 3732,
      "缸": 3733,
      "缺": 3734,
      "网": 3735,
      "罗": 3736,
      "置": 3737,
      "羅": 3738,
      "美": 3739,
      "羡": 3740,
      "群": 3741,
      "羽": 3742,
      "翁": 3743,
      "翅": 3744,
      "翔": 3745,
      "翠": 3746,
      "翰": 3747,
      "翻": 3748,
      "翼": 3749,
      "老": 3750,
      "考": 3751,
      "者": 3752,
      "而": 3753,
      "耍": 3754,
      "耐": 3755,
      "耳": 3756,
      "职": 3757,
      "联": 3758,
      "聖": 3759,
      "聞": 3760,
      "聪": 3761,
      "肆": 3762,
      "肌": 3763,
      "肓": 3764,
      "肚": 3765,
      "肠": 3766,
      "肢": 3767,
      "肤": 3768,
      "肥": 3769,
      "肯": 3770,
      "育": 3771,
      "肺": 3772,
      "肽": 3773,
      "肾": 3774,
      "胀": 3775,
      "胃": 3776,
      "胆": 3777,
      "背": 3778,
      "胜": 3779,
      "胞": 3780,
      "胡": 3781,
      "胯": 3782,
      "胱": 3783,
      "胶": 3784,
      "能": 3785,
      "脂": 3786,
      "脉": 3787,
      "脑": 3788,
      "脱": 3789,
      "脳": 3790,
      "脾": 3791,
      "脿": 3792,
      "腐": 3793,
      "腑": 3794,
      "腔": 3795,
      "腸": 3796,
      "腺": 3797,
      "膀": 3798,
      "膜": 3799,
      "膝": 3800,
      "膨": 3801,
      "臂": 3802,
      "自": 3803,
      "至": 3804,
      "致": 3805,
      "舌": 3806,
      "舒": 3807,
      "舞": 3808,
      "航": 3809,
      "般": 3810,
      "舰": 3811,
      "舵": 3812,
      "舷": 3813,
      "良": 3814,
      "艰": 3815,
      "色": 3816,
      "艺": 3817,
      "节": 3818,
      "芋": 3819,
      "芥": 3820,
      "花": 3821,
      "芽": 3822,
      "苏": 3823,
      "若": 3824,
      "苦": 3825,
      "英": 3826,
      "苷": 3827,
      "范": 3828,
      "茅": 3829,
      "茨": 3830,
      "茬": 3831,
      "茶": 3832,
      "草": 3833,
      "荒": 3834,
      "荣": 3835,
      "荤": 3836,
      "药": 3837,
      "荷": 3838,
      "莫": 3839,
      "莱": 3840,
      "莲": 3841,
      "获": 3842,
      "菊": 3843,
      "菌": 3844,
      "菜": 3845,
      "萄": 3846,
      "萎": 3847,
      "萝": 3848,
      "营": 3849,
      "落": 3850,
      "葡": 3851,
      "葱": 3852,
      "葵": 3853,
      "蒂": 3854,
      "蒋": 3855,
      "蒙": 3856,
      "蒼": 3857,
      "蓝": 3858,
      "蓮": 3859,
      "蔗": 3860,
      "蕉": 3861,
      "蕙": 3862,
      "蕾": 3863,
      "薇": 3864,
      "薓": 3865,
      "藉": 3866,
      "藏": 3867,
      "藝": 3868,
      "藤": 3869,
      "藹": 3870,
      "蘭": 3871,
      "虎": 3872,
      "虐": 3873,
      "虑": 3874,
      "虚": 3875,
      "虞": 3876,
      "虫": 3877,
      "虹": 3878,
      "虽": 3879,
      "蛋": 3880,
      "蜀": 3881,
      "蜂": 3882,
      "蜜": 3883,
      "蝮": 3884,
      "融": 3885,
      "蟺": 3886,
      "蠢": 3887,
      "血": 3888,
      "行": 3889,
      "術": 3890,
      "街": 3891,
      "衡": 3892,
      "衣": 3893,
      "补": 3894,
      "表": 3895,
      "袋": 3896,
      "袗": 3897,
      "袝": 3898,
      "袧": 3899,
      "被": 3900,
      "袱": 3901,
      "裁": 3902,
      "裂": 3903,
      "装": 3904,
      "補": 3905,
      "裤": 3906,
      "褰": 3907,
      "襲": 3908,
      "西": 3909,
      "要": 3910,
      "親": 3911,
      "覴": 3912,
      "见": 3913,
      "规": 3914,
      "视": 3915,
      "觉": 3916,
      "觟": 3917,
      "解": 3918,
      "言": 3919,
      "訶": 3920,
      "話": 3921,
      "詳": 3922,
      "誉": 3923,
      "認": 3924,
      "說": 3925,
      "諾": 3926,
      "警": 3927,
      "讀": 3928,
      "變": 3929,
      "计": 3930,
      "订": 3931,
      "认": 3932,
      "讨": 3933,
      "让": 3934,
      "讫": 3935,
      "训": 3936,
      "议": 3937,
      "讯": 3938,
      "记": 3939,
      "讲": 3940,
      "讳": 3941,
      "许": 3942,
      "论": 3943,
      "设": 3944,
      "访": 3945,
      "证": 3946,
      "评": 3947,
      "识": 3948,
      "诉": 3949,
      "词": 3950,
      "译": 3951,
      "试": 3952,
      "诚": 3953,
      "话": 3954,
      "诞": 3955,
      "诡": 3956,
      "询": 3957,
      "该": 3958,
      "详": 3959,
      "诧": 3960,
      "语": 3961,
      "误": 3962,
      "诲": 3963,
      "说": 3964,
      "请": 3965,
      "诺": 3966,
      "读": 3967,
      "课": 3968,
      "调": 3969,
      "谈": 3970,
      "谎": 3971,
      "谐": 3972,
      "谙": 3973,
      "谢": 3974,
      "谨": 3975,
      "谩": 3976,
      "谷": 3977,
      "豆": 3978,
      "豚": 3979,
      "象": 3980,
      "豫": 3981,
      "貌": 3982,
      "買": 3983,
      "賀": 3984,
      "賢": 3985,
      "负": 3986,
      "财": 3987,
      "货": 3988,
      "质": 3989,
      "贫": 3990,
      "购": 3991,
      "贯": 3992,
      "贰": 3993,
      "贵": 3994,
      "贸": 3995,
      "资": 3996,
      "赔": 3997,
      "赖": 3998,
      "赛": 3999,
      "走": 4000,
      "起": 4001,
      "超": 4002,
      "越": 4003,
      "趣": 4004,
      "足": 4005,
      "趾": 4006,
      "跎": 4007,
      "跛": 4008,
      "跟": 4009,
      "跨": 4010,
      "路": 4011,
      "跳": 4012,
      "跺": 4013,
      "蹇": 4014,
      "蹉": 4015,
      "蹭": 4016,
      "躁": 4017,
      "身": 4018,
      "躯": 4019,
      "躲": 4020,
      "車": 4021,
      "輩": 4022,
      "车": 4023,
      "轨": 4024,
      "转": 4025,
      "软": 4026,
      "轰": 4027,
      "轴": 4028,
      "轻": 4029,
      "载": 4030,
      "较": 4031,
      "辐": 4032,
      "辑": 4033,
      "输": 4034,
      "辛": 4035,
      "辞": 4036,
      "辨": 4037,
      "辩": 4038,
      "辫": 4039,
      "農": 4040,
      "边": 4041,
      "辻": 4042,
      "达": 4043,
      "过": 4044,
      "迈": 4045,
      "迎": 4046,
      "运": 4047,
      "近": 4048,
      "还": 4049,
      "这": 4050,
      "进": 4051,
      "远": 4052,
      "违": 4053,
      "迪": 4054,
      "述": 4055,
      "迷": 4056,
      "追": 4057,
      "退": 4058,
      "送": 4059,
      "适": 4060,
      "逃": 4061,
      "逆": 4062,
      "选": 4063,
      "逊": 4064,
      "逋": 4065,
      "透": 4066,
      "逐": 4067,
      "通": 4068,
      "逛": 4069,
      "速": 4070,
      "造": 4071,
      "週": 4072,
      "遂": 4073,
      "遇": 4074,
      "遍": 4075,
      "道": 4076,
      "遛": 4077,
      "遣": 4078,
      "遥": 4079,
      "避": 4080,
      "那": 4081,
      "邦": 4082,
      "邪": 4083,
      "郁": 4084,
      "郎": 4085,
      "部": 4086,
      "郴": 4087,
      "都": 4088,
      "鄂": 4089,
      "酌": 4090,
      "配": 4091,
      "酒": 4092,
      "酮": 4093,
      "酯": 4094,
      "酰": 4095,
      "酵": 4096,
      "酶": 4097,
      "酸": 4098,
      "醇": 4099,
      "醉": 4100,
      "醋": 4101,
      "醌": 4102,
      "醒": 4103,
      "醛": 4104,
      "醫": 4105,
      "醬": 4106,
      "采": 4107,
      "释": 4108,
      "里": 4109,
      "重": 4110,
      "野": 4111,
      "量": 4112,
      "金": 4113,
      "釜": 4114,
      "針": 4115,
      "鈥": 4116,
      "鈧": 4117,
      "鈩": 4118,
      "鈪": 4119,
      "鈫": 4120,
      "鈭": 4121,
      "鈶": 4122,
      "鈹": 4123,
      "鈻": 4124,
      "鈼": 4125,
      "鈽": 4126,
      "鉴": 4127,
      "銆": 4128,
      "銊": 4129,
      "銕": 4130,
      "錬": 4131,
      "鍊": 4132,
      "鍋": 4133,
      "鍌": 4134,
      "鍎": 4135,
      "鍏": 4136,
      "鍐": 4137,
      "鍑": 4138,
      "鍒": 4139,
      "鍓": 4140,
      "鍔": 4141,
      "鍕": 4142,
      "鍖": 4143,
      "鍗": 4144,
      "鍘": 4145,
      "鍙": 4146,
      "鍚": 4147,
      "鍛": 4148,
      "鍜": 4149,
      "鍝": 4150,
      "鍞": 4151,
      "鍟": 4152,
      "鍠": 4153,
      "鍡": 4154,
      "鍢": 4155,
      "鍣": 4156,
      "鍥": 4157,
      "鍦": 4158,
      "鍧": 4159,
      "鍨": 4160,
      "鍩": 4161,
      "鎬": 4162,
      "鎭": 4163,
      "鎮": 4164,
      "鎯": 4165,
      "鎰": 4166,
      "鎱": 4167,
      "鎴": 4168,
      "鎵": 4169,
      "鎶": 4170,
      "鎷": 4171,
      "鎸": 4172,
      "鎹": 4173,
      "鎺": 4174,
      "鎻": 4175,
      "鎼": 4176,
      "鎽": 4177,
      "鎿": 4178,
      "鏀": 4179,
      "鏁": 4180,
      "鏂": 4181,
      "鏃": 4182,
      "鏄": 4183,
      "鏅": 4184,
      "鏇": 4185,
      "鏈": 4186,
      "鏉": 4187,
      "鏋": 4188,
      "鏌": 4189,
      "鏍": 4190,
      "鐏": 4191,
      "鐐": 4192,
      "鐑": 4193,
      "鐖": 4194,
      "鐗": 4195,
      "鐘": 4196,
      "鐙": 4197,
      "鐚": 4198,
      "鐛": 4199,
      "鐜": 4200,
      "鐝": 4201,
      "鐞": 4202,
      "鐢": 4203,
      "鐣": 4204,
      "鐤": 4205,
      "鐥": 4206,
      "鐦": 4207,
      "鐧": 4208,
      "鐨": 4209,
      "鐩": 4210,
      "鐪": 4211,
      "鐭": 4212,
      "鑰": 4213,
      "鑱": 4214,
      "鑲": 4215,
      "鑳": 4216,
      "鑴": 4217,
      "鑵": 4218,
      "鑶": 4219,
      "鑷": 4220,
      "鑸": 4221,
      "鑹": 4222,
      "鑺": 4223,
      "鑻": 4224,
      "鑼": 4225,
      "鑽": 4226,
      "鑾": 4227,
      "钀": 4228,
      "钁": 4229,
      "钂": 4230,
      "钉": 4231,
      "钖": 4232,
      "钙": 4233,
      "钩": 4234,
      "钱": 4235,
      "钳": 4236,
      "铁": 4237,
      "铃": 4238,
      "铆": 4239,
      "铋": 4240,
      "铏": 4241,
      "铚": 4242,
      "银": 4243,
      "铸": 4244,
      "铻": 4245,
      "铿": 4246,
      "锁": 4247,
      "锋": 4248,
      "锍": 4249,
      "锕": 4250,
      "错": 4251,
      "锚": 4252,
      "锛": 4253,
      "锝": 4254,
      "锟": 4255,
      "锠": 4256,
      "锤": 4257,
      "锥": 4258,
      "键": 4259,
      "锵": 4260,
      "锻": 4261,
      "镐": 4262,
      "镑": 4263,
      "镜": 4264,
      "镶": 4265,
      "长": 4266,
      "門": 4267,
      "閑": 4268,
      "間": 4269,
      "閫": 4270,
      "閬": 4271,
      "閭": 4272,
      "閮": 4273,
      "閰": 4274,
      "閱": 4275,
      "閲": 4276,
      "閽": 4277,
      "閾": 4278,
      "閿": 4279,
      "闀": 4280,
      "闁": 4281,
      "闂": 4282,
      "闃": 4283,
      "闄": 4284,
      "闅": 4285,
      "闆": 4286,
      "闇": 4287,
      "闈": 4288,
      "闊": 4289,
      "门": 4290,
      "闩": 4291,
      "闭": 4292,
      "问": 4293,
      "闲": 4294,
      "间": 4295,
      "闷": 4296,
      "闻": 4297,
      "阅": 4298,
      "阐": 4299,
      "阝": 4300,
      "队": 4301,
      "防": 4302,
      "阳": 4303,
      "阴": 4304,
      "阵": 4305,
      "阻": 4306,
      "阿": 4307,
      "附": 4308,
      "际": 4309,
      "陈": 4310,
      "陋": 4311,
      "降": 4312,
      "限": 4313,
      "院": 4314,
      "除": 4315,
      "险": 4316,
      "陳": 4317,
      "陷": 4318,
      "陽": 4319,
      "隆": 4320,
      "随": 4321,
      "隘": 4322,
      "障": 4323,
      "隱": 4324,
      "难": 4325,
      "雄": 4326,
      "集": 4327,
      "雇": 4328,
      "雕": 4329,
      "難": 4330,
      "雨": 4331,
      "零": 4332,
      "雷": 4333,
      "需": 4334,
      "霉": 4335,
      "霊": 4336,
      "霞": 4337,
      "霧": 4338,
      "露": 4339,
      "青": 4340,
      "靖": 4341,
      "静": 4342,
      "非": 4343,
      "面": 4344,
      "革": 4345,
      "韧": 4346,
      "韩": 4347,
      "音": 4348,
      "顎": 4349,
      "顙": 4350,
      "類": 4351,
      "顡": 4352,
      "顣": 4353,
      "顤": 4354,
      "顥": 4355,
      "顦": 4356,
      "顩": 4357,
      "顭": 4358,
      "顯": 4359,
      "页": 4360,
      "顶": 4361,
      "项": 4362,
      "顺": 4363,
      "须": 4364,
      "顽": 4365,
      "顿": 4366,
      "颁": 4367,
      "预": 4368,
      "领": 4369,
      "频": 4370,
      "颓": 4371,
      "题": 4372,
      "额": 4373,
      "颠": 4374,
      "风": 4375,
      "飘": 4376,
      "飛": 4377,
      "飞": 4378,
      "食": 4379,
      "餅": 4380,
      "餐": 4381,
      "饭": 4382,
      "饰": 4383,
      "饵": 4384,
      "饶": 4385,
      "饿": 4386,
      "馆": 4387,
      "香": 4388,
      "馬": 4389,
      "駅": 4390,
      "马": 4391,
      "驶": 4392,
      "驻": 4393,
      "驾": 4394,
      "骇": 4395,
      "验": 4396,
      "骞": 4397,
      "骡": 4398,
      "骨": 4399,
      "骸": 4400,
      "體": 4401,
      "高": 4402,
      "鬃": 4403,
      "鬥": 4404,
      "鬼": 4405,
      "魔": 4406,
      "鮮": 4407,
      "鱼": 4408,
      "鲁": 4409,
      "鲜": 4410,
      "鳳": 4411,
      "鴛": 4412,
      "鴦": 4413,
      "鸿": 4414,
      "鹃": 4415,
      "鹅": 4416,
      "鹤": 4417,
      "麦": 4418,
      "麸": 4419,
      "麻": 4420,
      "麽": 4421,
      "黎": 4422,
      "黑": 4423,
      "默": 4424,
      "點": 4425,
      "黨": 4426,
      "黯": 4427,
      "鼠": 4428,
      "齐": 4429,
      "龍": 4430,
      "龙": 4431,
      "Ꙁ": 4432,
      "가": 4433,
      "개": 4434,
      "거": 4435,
      "계": 4436,
      "공": 4437,
      "과": 4438,
      "국": 4439,
      "군": 4440,
      "규": 4441,
      "기": 4442,
      "도": 4443,
      "뚜": 4444,
      "력": 4445,
      "련": 4446,
      "로": 4447,
      "루": 4448,
      "리": 4449,
      "마": 4450,
      "멜": 4451,
      "무": 4452,
      "박": 4453,
      "발": 4454,
      "병": 4455,
      "부": 4456,
      "사": 4457,
      "샷": 4458,
      "선": 4459,
      "설": 4460,
      "성": 4461,
      "숙": 4462,
      "승": 4463,
      "식": 4464,
      "업": 4465,
      "에": 4466,
      "엔": 4467,
      "역": 4468,
      "연": 4469,
      "영": 4470,
      "오": 4471,
      "우": 4472,
      "원": 4473,
      "응": 4474,
      "자": 4475,
      "전": 4476,
      "제": 4477,
      "조": 4478,
      "종": 4479,
      "주": 4480,
      "지": 4481,
      "창": 4482,
      "철": 4483,
      "총": 4484,
      "최": 4485,
      "춘": 4486,
      "쿠": 4487,
      "하": 4488,
      "학": 4489,
      "합": 4490,
      "행": 4491,
      "혜": 4492,
      "호": 4493,
      "홍": 4494,
      "황": 4495,
      "회": 4496,
      "휘": 4497,
      "": 4498,
      "": 4499,
      "": 4500,
      "": 4501,
      "": 4502,
      "": 4503,
      "": 4504,
      "": 4505,
      "": 4506,
      "": 4507,
      "": 4508,
      "": 4509,
      "": 4510,
      "": 4511,
      "": 4512,
      "": 4513,
      "": 4514,
      "": 4515,
      "": 4516,
      "": 4517,
      "": 4518,
      "": 4519,
      "": 4520,
      "": 4521,
      "": 4522,
      "": 4523,
      "": 4524,
      "": 4525,
      "": 4526,
      "": 4527,
      "": 4528,
      "": 4529,
      "": 4530,
      "": 4531,
      "": 4532,
      "": 4533,
      "": 4534,
      "": 4535,
      "": 4536,
      "": 4537,
      "": 4538,
      "": 4539,
      "": 4540,
      "": 4541,
      "": 4542,
      "": 4543,
      "": 4544,
      "": 4545,
      "": 4546,
      "": 4547,
      "": 4548,
      "": 4549,
      "": 4550,
      "": 4551,
      "": 4552,
      "": 4553,
      "": 4554,
      "": 4555,
      "": 4556,
      "": 4557,
      "": 4558,
      "": 4559,
      "": 4560,
      "": 4561,
      "": 4562,
      "": 4563,
      "": 4564,
      "": 4565,
      "": 4566,
      "": 4567,
      "": 4568,
      "": 4569,
      "": 4570,
      "": 4571,
      "": 4572,
      "": 4573,
      "": 4574,
      "": 4575,
      "": 4576,
      "": 4577,
      "": 4578,
      "": 4579,
      "": 4580,
      "": 4581,
      "": 4582,
      "": 4583,
      "": 4584,
      "": 4585,
      "": 4586,
      "": 4587,
      "": 4588,
      "": 4589,
      "": 4590,
      "": 4591,
      "": 4592,
      "": 4593,
      "": 4594,
      "": 4595,
      "": 4596,
      "": 4597,
      "": 4598,
      "": 4599,
      "": 4600,
      "": 4601,
      "": 4602,
      "": 4603,
      "": 4604,
      "": 4605,
      "": 4606,
      "": 4607,
      "": 4608,
      "": 4609,
      "": 4610,
      "": 4611,
      "": 4612,
      "": 4613,
      "": 4614,
      "": 4615,
      "": 4616,
      "": 4617,
      "": 4618,
      "": 4619,
      "": 4620,
      "": 4621,
      "": 4622,
      "": 4623,
      "": 4624,
      "": 4625,
      "": 4626,
      "": 4627,
      "": 4628,
      "": 4629,
      "": 4630,
      "": 4631,
      "": 4632,
      "": 4633,
      "": 4634,
      "": 4635,
      "": 4636,
      "": 4637,
      "": 4638,
      "": 4639,
      "": 4640,
      "": 4641,
      "": 4642,
      "": 4643,
      "": 4644,
      "": 4645,
      "": 4646,
      "": 4647,
      "": 4648,
      "": 4649,
      "": 4650,
      "": 4651,
      "": 4652,
      "": 4653,
      "": 4654,
      "": 4655,
      "": 4656,
      "": 4657,
      "": 4658,
      "": 4659,
      "": 4660,
      "": 4661,
      "": 4662,
      "": 4663,
      "": 4664,
      "": 4665,
      "": 4666,
      "": 4667,
      "": 4668,
      "": 4669,
      "": 4670,
      "": 4671,
      "": 4672,
      "": 4673,
      "": 4674,
      "": 4675,
      "": 4676,
      "": 4677,
      "": 4678,
      "": 4679,
      "ﬀ": 4680,
      "ﬁ": 4681,
      "ﬂ": 4682,
      "ﬃ": 4683,
      "﴾": 4684,
      "︹": 4685,
      "︺": 4686,
      "︼": 4687,
      "︽": 4688,
      "︾": 4689,
      "︿": 4690,
      "﹀": 4691,
      "﹂": 4692,
      "﹐": 4693,
      "﹑": 4694,
      "﹕": 4695,
      "﹖": 4696,
      "﹗": 4697,
      "﹟": 4698,
      "﹩": 4699,
      "！": 4700,
      "＂": 4701,
      "＃": 4702,
      "＄": 4703,
      "％": 4704,
      "＆": 4705,
      "＇": 4706,
      "（": 4707,
      "）": 4708,
      "＊": 4709,
      "＋": 4710,
      "，": 4711,
      "－": 4712,
      "．": 4713,
      "／": 4714,
      "０": 4715,
      "１": 4716,
      "２": 4717,
      "３": 4718,
      "４": 4719,
      "５": 4720,
      "６": 4721,
      "７": 4722,
      "８": 4723,
      "９": 4724,
      "：": 4725,
      "；": 4726,
      "＜": 4727,
      "＝": 4728,
      "＞": 4729,
      "？": 4730,
      "Ａ": 4731,
      "Ｏ": 4732,
      "Ｕ": 4733,
      "［": 4734,
      "＼": 4735,
      "］": 4736,
      "＿": 4737,
      "｀": 4738,
      "ａ": 4739,
      "ｃ": 4740,
      "ｄ": 4741,
      "ｅ": 4742,
      "ｆ": 4743,
      "ｇ": 4744,
      "ｈ": 4745,
      "ｉ": 4746,
      "ｌ": 4747,
      "ｎ": 4748,
      "ｏ": 4749,
      "ｒ": 4750,
      "ｔ": 4751,
      "ｕ": 4752,
      "｛": 4753,
      "｜": 4754,
      "｝": 4755,
      "～": 4756,
      "ｲ": 4757,
      "￠": 4758,
      "￡": 4759,
      "￣": 4760,
      "￥": 4761,
      "￭": 4762,
      "�": 4763,
      "th": 4764,
      "on": 4765,
      "in": 4766,
      "the": 4767,
      "an": 4768,
      "re": 4769,
      "ti": 4770,
      "en": 4771,
      "er": 4772,
      "or": 4773,
      "al": 4774,
      "of": 4775,
      "es": 4776,
      "tion": 4777,
      "ed": 4778,
      "and": 4779,
      "at": 4780,
      "is": 4781,
      "to": 4782,
      "ar": 4783,
      "ing": 4784,
      "it": 4785,
      "ou": 4786,
      "ation": 4787,
      "ent": 4788,
      "as": 4789,
      "ro": 4790,
      "ic": 4791,
      "ec": 4792,
      "le": 4793,
      "om": 4794,
      "st": 4795,
      "ve": 4796,
      "ac": 4797,
      "for": 4798,
      "ment": 4799,
      "he": 4800,
      "il": 4801,
      "de": 4802,
      "pro": 4803,
      "si": 4804,
      "su": 4805,
      "se": 4806,
      "ol": 4807,
      "ce": 4808,
      "con": 4809,
      "ra": 4810,
      "be": 4811,
      "ri": 4812,
      "res": 4813,
      "ly": 4814,
      "ter": 4815,
      "lo": 4816,
      "me": 4817,
      "un": 4818,
      "ad": 4819,
      "that": 4820,
      "The": 4821,
      "ts": 4822,
      "ur": 4823,
      "ver": 4824,
      "te": 4825,
      "com": 4826,
      "ab": 4827,
      "wi": 4828,
      "ch": 4829,
      "ag": 4830,
      "per": 4831,
      "gh": 4832,
      "ir": 4833,
      "ate": 4834,
      "im": 4835,
      "ations": 4836,
      "with": 4837,
      "oun": 4838,
      "ul": 4839,
      "ity": 4840,
      "por": 4841,
      "are": 4842,
      "we": 4843,
      "no": 4844,
      "vi": 4845,
      "ci": 4846,
      "ex": 4847,
      "by": 4848,
      "ld": 4849,
      "li": 4850,
      "par": 4851,
      "20": 4852,
      "di": 4853,
      "ap": 4854,
      "ma": 4855,
      "po": 4856,
      "et": 4857,
      "qu": 4858,
      "wh": 4859,
      "der": 4860,
      "port": 4861,
      "all": 4862,
      "mb": 4863,
      "man": 4864,
      "tic": 4865,
      "In": 4866,
      "mo": 4867,
      "sh": 4868,
      "ff": 4869,
      "ational": 4870,
      "us": 4871,
      "sion": 4872,
      "our": 4873,
      "ess": 4874,
      "tr": 4875,
      "ther": 4876,
      "so": 4877,
      "ted": 4878,
      "pl": 4879,
      "ren": 4880,
      "uc": 4881,
      "tive": 4882,
      "end": 4883,
      "am": 4884,
      "op": 4885,
      "its": 4886,
      "ay": 4887,
      "ion": 4888,
      "ties": 4889,
      "ud": 4890,
      "ary": 4891,
      "ne": 4892,
      "national": 4893,
      "ould": 4894,
      "was": 4895,
      "ain": 4896,
      "over": 4897,
      "ha": 4898,
      "Un": 4899,
      "iz": 4900,
      "wor": 4901,
      "pe": 4902,
      "cl": 4903,
      "Com": 4904,
      "St": 4905,
      "200": 4906,
      "em": 4907,
      "ance": 4908,
      "velo": 4909,
      "mit": 4910,
      "velop": 4911,
      "ited": 4912,
      "ke": 4913,
      "ist": 4914,
      "id": 4915,
      "pec": 4916,
      "ut": 4917,
      "mber": 4918,
      "ill": 4919,
      "ated": 4920,
      "rom": 4921,
      "est": 4922,
      "coun": 4923,
      "ution": 4924,
      "form": 4925,
      "co": 4926,
      "from": 4927,
      "ven": 4928,
      "red": 4929,
      "not": 4930,
      "out": 4931,
      "min": 4932,
      "reg": 4933,
      "inter": 4934,
      "ge": 4935,
      "United": 4936,
      "cont": 4937,
      "ple": 4938,
      "ant": 4939,
      "ard": 4940,
      "eral": 4941,
      "ments": 4942,
      "ates": 4943,
      "fe": 4944,
      "has": 4945,
      "work": 4946,
      "develop": 4947,
      "ll": 4948,
      "od": 4949,
      "have": 4950,
      "dis": 4951,
      "ial": 4952,
      "pre": 4953,
      "Con": 4954,
      "igh": 4955,
      "19": 4956,
      "able": 4957,
      "fic": 4958,
      "ich": 4959,
      "rou": 4960,
      "pres": 4961,
      "ure": 4962,
      "pr": 4963,
      "gra": 4964,
      "comm": 4965,
      "Nations": 4966,
      "Re": 4967,
      "their": 4968,
      "sec": 4969,
      "str": 4970,
      "ty": 4971,
      "which": 4972,
      "ers": 4973,
      "eneral": 4974,
      "age": 4975,
      "up": 4976,
      "ub": 4977,
      "ish": 4978,
      "this": 4979,
      "ta": 4980,
      "overn": 4981,
      "el": 4982,
      "do": 4983,
      "gn": 4984,
      "ous": 4985,
      "tee": 4986,
      "ces": 4987,
      "ans": 4988,
      "ace": 4989,
      "other": 4990,
      "lic": 4991,
      "one": 4992,
      "will": 4993,
      "vis": 4994,
      "mittee": 4995,
      "uman": 4996,
      "fo": 4997,
      "Sec": 4998,
      "righ": 4999,
      "ach": 5000,
      "go": 5001,
      "ence": 5002,
      "his": 5003,
      "ser": 5004,
      "under": 5005,
      "ission": 5006,
      "um": 5007,
      "count": 5008,
      "gan": 5009,
      "aw": 5010,
      "ass": 5011,
      "low": 5012,
      "incl": 5013,
      "ust": 5014,
      "tions": 5015,
      "Committee": 5016,
      "you": 5017,
      "ear": 5018,
      "General": 5019,
      "ia": 5020,
      "ong": 5021,
      "cial": 5022,
      "ice": 5023,
      "had": 5024,
      "ild": 5025,
      "ew": 5026,
      "au": 5027,
      "ies": 5028,
      "ret": 5029,
      "As": 5030,
      "tec": 5031,
      "pol": 5032,
      "gram": 5033,
      "been": 5034,
      "ord": 5035,
      "fin": 5036,
      "fi": 5037,
      "ves": 5038,
      "tra": 5039,
      "States": 5040,
      "also": 5041,
      "rec": 5042,
      "international": 5043,
      "oper": 5044,
      "act": 5045,
      "ses": 5046,
      "king": 5047,
      "leg": 5048,
      "sup": 5049,
      "sub": 5050,
      "sa": 5051,
      "were": 5052,
      "ganiz": 5053,
      "plement": 5054,
      "UN": 5055,
      "ries": 5056,
      "enti": 5057,
      "ob": 5058,
      "Ch": 5059,
      "report": 5060,
      "sti": 5061,
      "ari": 5062,
      "requ": 5063,
      "olution": 5064,
      "cess": 5065,
      "duc": 5066,
      "int": 5067,
      "ow": 5068,
      "ome": 5069,
      "ical": 5070,
      "Pro": 5071,
      "development": 5072,
      "provi": 5073,
      "overnment": 5074,
      "dec": 5075,
      "ublic": 5076,
      "present": 5077,
      "should": 5078,
      "ph": 5079,
      "ities": 5080,
      "ef": 5081,
      "jec": 5082,
      "201": 5083,
      "cre": 5084,
      "mission": 5085,
      "199": 5086,
      "pos": 5087,
      "sy": 5088,
      "Coun": 5089,
      "includ": 5090,
      "ble": 5091,
      "ting": 5092,
      "ree": 5093,
      "De": 5094,
      "human": 5095,
      "omen": 5096,
      "ful": 5097,
      "gr": 5098,
      "gu": 5099,
      "ine": 5100,
      "pri": 5101,
      "would": 5102,
      "spec": 5103,
      "ms": 5104,
      "rel": 5105,
      "cil": 5106,
      "It": 5107,
      "ual": 5108,
      "public": 5109,
      "implement": 5110,
      "countries": 5111,
      "inform": 5112,
      "cri": 5113,
      "can": 5114,
      "ip": 5115,
      "ase": 5116,
      "cer": 5117,
      "part": 5118,
      "rights": 5119,
      "resolution": 5120,
      "cent": 5121,
      "pon": 5122,
      "program": 5123,
      "reat": 5124,
      "view": 5125,
      "urity": 5126,
      "bo": 5127,
      "ffec": 5128,
      "ep": 5129,
      "pers": 5130,
      "ress": 5131,
      "ved": 5132,
      "Council": 5133,
      "support": 5134,
      "00": 5135,
      "stem": 5136,
      "ast": 5137,
      "ors": 5138,
      "gen": 5139,
      "ures": 5140,
      "ating": 5141,
      "more": 5142,
      "vention": 5143,
      "eting": 5144,
      "any": 5145,
      "ility": 5146,
      "ative": 5147,
      "des": 5148,
      "ory": 5149,
      "roup": 5150,
      "lish": 5151,
      "acti": 5152,
      "year": 5153,
      "organiz": 5154,
      "ound": 5155,
      "ue": 5156,
      "try": 5157,
      "such": 5158,
      "ons": 5159,
      "fore": 5160,
      "rough": 5161,
      "including": 5162,
      "ular": 5163,
      "comp": 5164,
      "serv": 5165,
      "med": 5166,
      "region": 5167,
      "system": 5168,
      "sul": 5169,
      "Secret": 5170,
      "ning": 5171,
      "vel": 5172,
      "gy": 5173,
      "stit": 5174,
      "und": 5175,
      "Inter": 5176,
      "but": 5177,
      "need": 5178,
      "bas": 5179,
      "tical": 5180,
      "bet": 5181,
      "there": 5182,
      "ten": 5183,
      "feren": 5184,
      "ving": 5185,
      "now": 5186,
      "onom": 5187,
      "ind": 5188,
      "hn": 5189,
      "women": 5190,
      "ose": 5191,
      "ack": 5192,
      "mar": 5193,
      "appro": 5194,
      "fr": 5195,
      "vision": 5196,
      "State": 5197,
      "ced": 5198,
      "law": 5199,
      ").": 5200,
      "mon": 5201,
      "contin": 5202,
      "issu": 5203,
      "new": 5204,
      "),": 5205,
      "time": 5206,
      "information": 5207,
      "bu": 5208,
      "cy": 5209,
      "into": 5210,
      "session": 5211,
      "econom": 5212,
      "they": 5213,
      "He": 5214,
      "ati": 5215,
      "ru": 5216,
      "cus": 5217,
      "ople": 5218,
      "val": 5219,
      "consi": 5220,
      "meeting": 5221,
      "semb": 5222,
      "Th": 5223,
      "peri": 5224,
      "ffic": 5225,
      "ign": 5226,
      "child": 5227,
      "inv": 5228,
      "sembly": 5229,
      "get": 5230,
      "An": 5231,
      "through": 5232,
      "ablish": 5233,
      "10": 5234,
      "again": 5235,
      "Commission": 5236,
      "col": 5237,
      "gi": 5238,
      "Ad": 5239,
      "effec": 5240,
      "respon": 5241,
      "Assembly": 5242,
      "trans": 5243,
      "ges": 5244,
      "use": 5245,
      "tor": 5246,
      "lear": 5247,
      "ft": 5248,
      "level": 5249,
      "tw": 5250,
      "operation": 5251,
      "ference": 5252,
      "made": 5253,
      "establish": 5254,
      "ember": 5255,
      "No": 5256,
      "ific": 5257,
      "some": 5258,
      "mes": 5259,
      "who": 5260,
      "commun": 5261,
      "sp": 5262,
      "very": 5263,
      "dra": 5264,
      "aff": 5265,
      "day": 5266,
      "olo": 5267,
      "concer": 5268,
      "Dec": 5269,
      "ticle": 5270,
      "Ac": 5271,
      "ally": 5272,
      "inte": 5273,
      "mil": 5274,
      "here": 5275,
      "commend": 5276,
      "ices": 5277,
      "ensu": 5278,
      "iti": 5279,
      "ater": 5280,
      "member": 5281,
      "plo": 5282,
      "cap": 5283,
      "techn": 5284,
      "air": 5285,
      "ollow": 5286,
      "implementation": 5287,
      "Secretary": 5288,
      "vities": 5289,
      "oc": 5290,
      "Par": 5291,
      "well": 5292,
      "meas": 5293,
      "cur": 5294,
      "Government": 5295,
      "if": 5296,
      "bal": 5297,
      "We": 5298,
      "ween": 5299,
      "ange": 5300,
      "ks": 5301,
      "rent": 5302,
      "ult": 5303,
      "av": 5304,
      "land": 5305,
      "Convention": 5306,
      "fir": 5307,
      "than": 5308,
      "dition": 5309,
      "activities": 5310,
      "people": 5311,
      "cip": 5312,
      "recommend": 5313,
      "polic": 5314,
      "between": 5315,
      "loc": 5316,
      "sel": 5317,
      "alth": 5318,
      "import": 5319,
      "ded": 5320,
      "way": 5321,
      "process": 5322,
      "International": 5323,
      "against": 5324,
      "ural": 5325,
      "incre": 5326,
      "stitution": 5327,
      "thor": 5328,
      "requi": 5329,
      "led": 5330,
      "those": 5331,
      "ner": 5332,
      "them": 5333,
      "stand": 5334,
      "offic": 5335,
      "order": 5336,
      "ile": 5337,
      "ources": 5338,
      "high": 5339,
      "lar": 5340,
      "finan": 5341,
      "may": 5342,
      "rit": 5343,
      "sit": 5344,
      "uring": 5345,
      "follow": 5346,
      "ticular": 5347,
      "ina": 5348,
      "cord": 5349,
      "my": 5350,
      "main": 5351,
      "ref": 5352,
      "ters": 5353,
      "country": 5354,
      "mer": 5355,
      "set": 5356,
      "particular": 5357,
      "als": 5358,
      "agement": 5359,
      "ail": 5360,
      "Ar": 5361,
      "This": 5362,
      "ned": 5363,
      "ision": 5364,
      "han": 5365,
      "ak": 5366,
      "effor": 5367,
      "assist": 5368,
      "adop": 5369,
      "about": 5370,
      "Wor": 5371,
      "pecial": 5372,
      "her": 5373,
      "ie": 5374,
      "qual": 5375,
      "For": 5376,
      "dent": 5377,
      "economic": 5378,
      "ticip": 5379,
      "15": 5380,
      "ris": 5381,
      "produc": 5382,
      "ship": 5383,
      "12": 5384,
      "Co": 5385,
      "umber": 5386,
      "peace": 5387,
      "consider": 5388,
      "fac": 5389,
      "Mr": 5390,
      "urther": 5391,
      "two": 5392,
      "agra": 5393,
      "Wh": 5394,
      "viol": 5395,
      "measures": 5396,
      "your": 5397,
      "vir": 5398,
      "plan": 5399,
      "agraph": 5400,
      "ond": 5401,
      "protec": 5402,
      "soci": 5403,
      "Develop": 5404,
      "fric": 5405,
      "security": 5406,
      "regard": 5407,
      "represent": 5408,
      "could": 5409,
      "ism": 5410,
      "these": 5411,
      "Afric": 5412,
      "shall": 5413,
      "add": 5414,
      "rest": 5415,
      "Republic": 5416,
      "regional": 5417,
      "plic": 5418,
      "ability": 5419,
      "decision": 5420,
      "uation": 5421,
      "arch": 5422,
      "author": 5423,
      "sive": 5424,
      "ok": 5425,
      "person": 5426,
      "programme": 5427,
      "see": 5428,
      "number": 5429,
      "Pre": 5430,
      "rib": 5431,
      "ho": 5432,
      "children": 5433,
      "Ex": 5434,
      "cu": 5435,
      "ian": 5436,
      "only": 5437,
      "rele": 5438,
      "organizations": 5439,
      "ding": 5440,
      "fund": 5441,
      "take": 5442,
      "group": 5443,
      "lin": 5444,
      "II": 5445,
      "pend": 5446,
      "cooperation": 5447,
      "promo": 5448,
      "onment": 5449,
      "ards": 5450,
      "right": 5451,
      "most": 5452,
      "af": 5453,
      "tain": 5454,
      "paragraph": 5455,
      "bec": 5456,
      "government": 5457,
      "ght": 5458,
      "educ": 5459,
      "ized": 5460,
      "crimin": 5461,
      "sign": 5462,
      "come": 5463,
      "lec": 5464,
      "vant": 5465,
      "period": 5466,
      "sible": 5467,
      "said": 5468,
      "particip": 5469,
      "non": 5470,
      "row": 5471,
      "ight": 5472,
      "provision": 5473,
      "Is": 5474,
      "tak": 5475,
      "resources": 5476,
      "efforts": 5477,
      "Conference": 5478,
      "nec": 5479,
      "resul": 5480,
      "struc": 5481,
      "ploy": 5482,
      "ject": 5483,
      "first": 5484,
      "ide": 5485,
      "social": 5486,
      "vil": 5487,
      "car": 5488,
      "ise": 5489,
      "bi": 5490,
      "11": 5491,
      "financial": 5492,
      "accord": 5493,
      "vironment": 5494,
      "ordin": 5495,
      "ber": 5496,
      "like": 5497,
      "ese": 5498,
      "Development": 5499,
      "To": 5500,
      "know": 5501,
      "vers": 5502,
      "pur": 5503,
      "ports": 5504,
      "aim": 5505,
      "respec": 5506,
      "when": 5507,
      "tal": 5508,
      "Or": 5509,
      "ban": 5510,
      "ining": 5511,
      "lobal": 5512,
      "years": 5513,
      "provide": 5514,
      "13": 5515,
      "ights": 5516,
      "Security": 5517,
      "ety": 5518,
      "En": 5519,
      "must": 5520,
      "fer": 5521,
      "state": 5522,
      "services": 5523,
      "impro": 5524,
      "itical": 5525,
      "reng": 5526,
      "vent": 5527,
      "hol": 5528,
      "review": 5529,
      "propos": 5530,
      "many": 5531,
      "Rights": 5532,
      "pa": 5533,
      "ext": 5534,
      "Human": 5535,
      "ensure": 5536,
      "ince": 5537,
      "issues": 5538,
      "management": 5539,
      "pt": 5540,
      "mand": 5541,
      "14": 5542,
      "sur": 5543,
      "special": 5544,
      "health": 5545,
      "ization": 5546,
      "app": 5547,
      "address": 5548,
      "draft": 5549,
      "assistance": 5550,
      "ys": 5551,
      "further": 5552,
      "Al": 5553,
      "continu": 5554,
      "action": 5555,
      "world": 5556,
      "build": 5557,
      "indi": 5558,
      "So": 5559,
      "cas": 5560,
      "Bo": 5561,
      "conf": 5562,
      "Group": 5563,
      "ann": 5564,
      "taken": 5565,
      "sident": 5566,
      "where": 5567,
      "ang": 5568,
      "posi": 5569,
      "Off": 5570,
      "legal": 5571,
      "ques": 5572,
      "les": 5573,
      "cho": 5574,
      "effective": 5575,
      "strate": 5576,
      "being": 5577,
      "within": 5578,
      "18": 5579,
      "party": 5580,
      "ples": 5581,
      "members": 5582,
      "staff": 5583,
      "ite": 5584,
      "enda": 5585,
      "cor": 5586,
      "ants": 5587,
      "long": 5588,
      "ulation": 5589,
      "At": 5590,
      "inci": 5591,
      "vid": 5592,
      "ily": 5593,
      "commit": 5594,
      "ness": 5595,
      "institution": 5596,
      "streng": 5597,
      "provided": 5598,
      "ore": 5599,
      "vo": 5600,
      "men": 5601,
      "lim": 5602,
      "relevant": 5603,
      "used": 5604,
      "based": 5605,
      "fact": 5606,
      "related": 5607,
      "elec": 5608,
      "30": 5609,
      "ture": 5610,
      "make": 5611,
      "less": 5612,
      "uro": 5613,
      "article": 5614,
      "atives": 5615,
      "sed": 5616,
      "bud": 5617,
      "Office": 5618,
      "areas": 5619,
      "China": 5620,
      "ings": 5621,
      "addition": 5622,
      "during": 5623,
      "16": 5624,
      "developing": 5625,
      "docu": 5626,
      "Special": 5627,
      "ry": 5628,
      "programmes": 5629,
      "hel": 5630,
      "Min": 5631,
      "achie": 5632,
      "capac": 5633,
      "ilities": 5634,
      "tern": 5635,
      "call": 5636,
      "cons": 5637,
      "item": 5638,
      "then": 5639,
      "ame": 5640,
      "jo": 5641,
      "education": 5642,
      "pare": 5643,
      "policy": 5644,
      "Le": 5645,
      "sib": 5646,
      "rol": 5647,
      "account": 5648,
      "cost": 5649,
      "him": 5650,
      "stan": 5651,
      "Pe": 5652,
      "good": 5653,
      "after": 5654,
      "environment": 5655,
      "important": 5656,
      "ause": 5657,
      "sc": 5658,
      "place": 5659,
      "reed": 5660,
      "ium": 5661,
      "held": 5662,
      "gress": 5663,
      "Euro": 5664,
      "increas": 5665,
      "political": 5666,
      "ology": 5667,
      "fied": 5668,
      "lion": 5669,
      "Organiz": 5670,
      "read": 5671,
      "tle": 5672,
      "persons": 5673,
      "mat": 5674,
      "enn": 5675,
      "ss": 5676,
      "December": 5677,
      "17": 5678,
      "imp": 5679,
      "civil": 5680,
      "change": 5681,
      "Member": 5682,
      "clo": 5683,
      "ffe": 5684,
      "initi": 5685,
      "ariat": 5686,
      "she": 5687,
      "fra": 5688,
      "rece": 5689,
      "cour": 5690,
      "ens": 5691,
      "Di": 5692,
      "br": 5693,
      "ribution": 5694,
      "training": 5695,
      "self": 5696,
      "dom": 5697,
      "quality": 5698,
      "ude": 5699,
      "protection": 5700,
      "wever": 5701,
      "la": 5702,
      "integr": 5703,
      "global": 5704,
      "istr": 5705,
      "uclear": 5706,
      "before": 5707,
      "cou": 5708,
      "ute": 5709,
      "lig": 5710,
      "wn": 5711,
      "off": 5712,
      "require": 5713,
      "mark": 5714,
      "Program": 5715,
      "dat": 5716,
      "une": 5717,
      "Europe": 5718,
      "lead": 5719,
      "applic": 5720,
      "what": 5721,
      "depend": 5722,
      "lan": 5723,
      "eng": 5724,
      "discus": 5725,
      "President": 5726,
      "uch": 5727,
      "IC": 5728,
      "exam": 5729,
      "fam": 5730,
      "following": 5731,
      "budget": 5732,
      "stain": 5733,
      "force": 5734,
      "Minis": 5735,
      "adopted": 5736,
      "both": 5737,
      "put": 5738,
      "just": 5739,
      "On": 5740,
      "ents": 5741,
      "current": 5742,
      "outh": 5743,
      "post": 5744,
      "gin": 5745,
      "--": 5746,
      "direc": 5747,
      "att": 5748,
      "tex": 5749,
      "dies": 5750,
      "deleg": 5751,
      "great": 5752,
      "parties": 5753,
      "eld": 5754,
      "25": 5755,
      "capacity": 5756,
      "tim": 5757,
      "don": 5758,
      "echan": 5759,
      "ai": 5760,
      "among": 5761,
      "employ": 5762,
      "access": 5763,
      "agree": 5764,
      "necess": 5765,
      "continue": 5766,
      "vari": 5767,
      "ilit": 5768,
      "Au": 5769,
      "situation": 5770,
      "keep": 5771,
      "sustain": 5772,
      "ade": 5773,
      "erv": 5774,
      "admin": 5775,
      "community": 5776,
      "itor": 5777,
      "general": 5778,
      "identi": 5779,
      "ough": 5780,
      "usti": 5781,
      "proble": 5782,
      "appropri": 5783,
      "olog": 5784,
      "three": 5785,
      "remain": 5786,
      "accordance": 5787,
      "consul": 5788,
      "recei": 5789,
      "unc": 5790,
      "There": 5791,
      "Programme": 5792,
      "comple": 5793,
      "role": 5794,
      "diffe": 5795,
      "Amer": 5796,
      "cing": 5797,
      "jud": 5798,
      "assess": 5799,
      "coordin": 5800,
      "treat": 5801,
      "Americ": 5802,
      "reques": 5803,
      "char": 5804,
      "same": 5805,
      "expres": 5806,
      "ency": 5807,
      "Organization": 5808,
      "equ": 5809,
      "mp": 5810,
      "building": 5811,
      "mework": 5812,
      "submit": 5813,
      "indic": 5814,
      "established": 5815,
      "proced": 5816,
      "contain": 5817,
      "agenda": 5818,
      "respect": 5819,
      "thing": 5820,
      "working": 5821,
      "iness": 5822,
      "stud": 5823,
      "mul": 5824,
      "help": 5825,
      "Cent": 5826,
      "specific": 5827,
      "grow": 5828,
      "ror": 5829,
      "recommendations": 5830,
      "2005": 5831,
      "field": 5832,
      "wer": 5833,
      "2008": 5834,
      "Cha": 5835,
      "line": 5836,
      "life": 5837,
      "ages": 5838,
      "own": 5839,
      "ben": 5840,
      "pop": 5841,
      "prior": 5842,
      "ital": 5843,
      "Article": 5844,
      "ential": 5845,
      "reports": 5846,
      "cies": 5847,
      "CO": 5848,
      "each": 5849,
      "coura": 5850,
      "progress": 5851,
      "til": 5852,
      "without": 5853,
      "2006": 5854,
      "did": 5855,
      "mechan": 5856,
      "avail": 5857,
      "while": 5858,
      "text": 5859,
      "24": 5860,
      "mun": 5861,
      "jor": 5862,
      "real": 5863,
      ");": 5864,
      "technical": 5865,
      "full": 5866,
      "Africa": 5867,
      "nuclear": 5868,
      "pris": 5869,
      "data": 5870,
      "isl": 5871,
      "ffici": 5872,
      "Res": 5873,
      "interest": 5874,
      "vement": 5875,
      "tention": 5876,
      "cra": 5877,
      "National": 5878,
      "control": 5879,
      "appropriate": 5880,
      "23": 5881,
      "dered": 5882,
      "fy": 5883,
      "ked": 5884,
      "possible": 5885,
      "mis": 5886,
      "how": 5887,
      "Li": 5888,
      "June": 5889,
      "uly": 5890,
      "partment": 5891,
      "necessary": 5892,
      "princi": 5893,
      "ultural": 5894,
      "chool": 5895,
      "invol": 5896,
      "ds": 5897,
      "ended": 5898,
      "case": 5899,
      "exp": 5900,
      "sto": 5901,
      "ale": 5902,
      "World": 5903,
      "local": 5904,
      "care": 5905,
      "adv": 5906,
      "conflic": 5907,
      "ID": 5908,
      "net": 5909,
      "fication": 5910,
      "Reg": 5911,
      "mi": 5912,
      "They": 5913,
      "conom": 5914,
      "Pol": 5915,
      "since": 5916,
      "2010": 5917,
      "Econom": 5918,
      "concern": 5919,
      "ral": 5920,
      "New": 5921,
      "termin": 5922,
      "vic": 5923,
      "anal": 5924,
      "ivers": 5925,
      "2009": 5926,
      "lab": 5927,
      "violence": 5928,
      "But": 5929,
      "gender": 5930,
      "road": 5931,
      "second": 5932,
      "2007": 5933,
      "sm": 5934,
      "major": 5935,
      "trade": 5936,
      "22": 5937,
      "million": 5938,
      "000": 5939,
      "arian": 5940,
      "basis": 5941,
      "bus": 5942,
      "ged": 5943,
      "every": 5944,
      "ustice": 5945,
      "ently": 5946,
      "Govern": 5947,
      "reas": 5948,
      "Rec": 5949,
      "2004": 5950,
      "Dis": 5951,
      "ran": 5952,
      "governmental": 5953,
      "jects": 5954,
      "du": 5955,
      "institutions": 5956,
      "thod": 5957,
      "pay": 5958,
      "back": 5959,
      "exist": 5960,
      "approach": 5961,
      "cases": 5962,
      "Economic": 5963,
      "Board": 5964,
      "six": 5965,
      "fl": 5966,
      "sibility": 5967,
      "appe": 5968,
      "groups": 5969,
      "water": 5970,
      "let": 5971,
      "contr": 5972,
      "document": 5973,
      "framework": 5974,
      "wel": 5975,
      "head": 5976,
      "sing": 5977,
      "reco": 5978,
      "consult": 5979,
      "art": 5980,
      "policies": 5981,
      "search": 5982,
      "bil": 5983,
      "Social": 5984,
      "weap": 5985,
      "har": 5986,
      "vidual": 5987,
      "sions": 5988,
      "Ho": 5989,
      "ort": 5990,
      "communic": 5991,
      "area": 5992,
      "conduc": 5993,
      "hand": 5994,
      "ensive": 5995,
      "reduc": 5996,
      "legisl": 5997,
      "nat": 5998,
      "ird": 5999,
      "mater": 6000,
      "Parties": 6001,
      "crimination": 6002,
      "four": 6003,
      "play": 6004,
      "dist": 6005,
      "ger": 6006,
      "South": 6007,
      "And": 6008,
      "You": 6009,
      "needs": 6010,
      "Oc": 6011,
      "sector": 6012,
      "hal": 6013,
      "airs": 6014,
      "26": 6015,
      "21": 6016,
      "sol": 6017,
      "func": 6018,
      "itarian": 6019,
      "nel": 6020,
      "design": 6021,
      "African": 6022,
      "key": 6023,
      "If": 6024,
      "ules": 6025,
      "war": 6026,
      "recogn": 6027,
      "Gu": 6028,
      "ize": 6029,
      "prac": 6030,
      "May": 6031,
      "del": 6032,
      "increase": 6033,
      "July": 6034,
      "rative": 6035,
      "Ag": 6036,
      "invest": 6037,
      "tics": 6038,
      "individual": 6039,
      "official": 6040,
      "meetings": 6041,
      "2011": 6042,
      "urn": 6043,
      "hi": 6044,
      "tem": 6045,
      "upon": 6046,
      "provisions": 6047,
      "ste": 6048,
      "itary": 6049,
      "concl": 6050,
      "include": 6051,
      "say": 6052,
      "ith": 6053,
      "strateg": 6054,
      "school": 6055,
      "Fund": 6056,
      "tig": 6057,
      "available": 6058,
      "Mo": 6059,
      "maint": 6060,
      "open": 6061,
      "even": 6062,
      "exper": 6063,
      "side": 6064,
      "range": 6065,
      "point": 6066,
      "fully": 6067,
      "focus": 6068,
      "contribution": 6069,
      "priv": 6070,
      "allen": 6071,
      "ways": 6072,
      "istration": 6073,
      "Pal": 6074,
      "developed": 6075,
      "because": 6076,
      "ross": 6077,
      "2000": 6078,
      "oblig": 6079,
      "objec": 6080,
      "2003": 6081,
      "ennium": 6082,
      "term": 6083,
      "amoun": 6084,
      "spe": 6085,
      "experi": 6086,
      "Chair": 6087,
      "ecu": 6088,
      "Fin": 6089,
      "method": 6090,
      "ious": 6091,
      "suc": 6092,
      "encies": 6093,
      "encoura": 6094,
      "acts": 6095,
      "down": 6096,
      "Tra": 6097,
      "society": 6098,
      "27": 6099,
      "month": 6100,
      "Cour": 6101,
      "istrative": 6102,
      "nor": 6103,
      "ove": 6104,
      "allow": 6105,
      "Women": 6106,
      "atory": 6107,
      "28": 6108,
      "monitor": 6109,
      "vestig": 6110,
      "2002": 6111,
      "Isra": 6112,
      "concerned": 6113,
      "consideration": 6114,
      "tocol": 6115,
      "terror": 6116,
      "claim": 6117,
      "uture": 6118,
      "proposed": 6119,
      "Serv": 6120,
      "ditions": 6121,
      "Law": 6122,
      "rab": 6123,
      "atus": 6124,
      "sen": 6125,
      "acy": 6126,
      "cept": 6127,
      "contri": 6128,
      "issue": 6129,
      "power": 6130,
      "project": 6131,
      "tri": 6132,
      "European": 6133,
      "portun": 6134,
      "position": 6135,
      "light": 6136,
      "keeping": 6137,
      "IV": 6138,
      "phas": 6139,
      "Me": 6140,
      "mor": 6141,
      "ition": 6142,
      "continued": 6143,
      "reach": 6144,
      "ateral": 6145,
      "nal": 6146,
      "31": 6147,
      "levels": 6148,
      "business": 6149,
      "ination": 6150,
      "military": 6151,
      "promote": 6152,
      "ately": 6153,
      "still": 6154,
      "does": 6155,
      "ences": 6156,
      "sustainable": 6157,
      "deb": 6158,
      "technology": 6159,
      "ene": 6160,
      "tow": 6161,
      "small": 6162,
      "comb": 6163,
      "found": 6164,
      "future": 6165,
      "proper": 6166,
      "ders": 6167,
      "considered": 6168,
      "ator": 6169,
      "sia": 6170,
      "preh": 6171,
      "ake": 6172,
      "standing": 6173,
      "Sep": 6174,
      "2001": 6175,
      "benef": 6176,
      "affec": 6177,
      "stru": 6178,
      "ared": 6179,
      "2012": 6180,
      "importance": 6181,
      "various": 6182,
      "DP": 6183,
      "ot": 6184,
      "required": 6185,
      "different": 6186,
      "determin": 6187,
      "Court": 6188,
      "Per": 6189,
      "vol": 6190,
      "mary": 6191,
      "plac": 6192,
      "challen": 6193,
      "Department": 6194,
      "She": 6195,
      "Octo": 6196,
      "clear": 6197,
      "particularly": 6198,
      "ators": 6199,
      "29": 6200,
      "October": 6201,
      "deli": 6202,
      "alia": 6203,
      "tember": 6204,
      "conflict": 6205,
      "noted": 6206,
      "ric": 6207,
      "September": 6208,
      "active": 6209,
      "opportun": 6210,
      "tional": 6211,
      "With": 6212,
      "prof": 6213,
      "requirements": 6214,
      "Working": 6215,
      "ath": 6216,
      "uge": 6217,
      "laration": 6218,
      "50": 6219,
      "ament": 6220,
      "Nove": 6221,
      "Palest": 6222,
      "November": 6223,
      "ouse": 6224,
      "govern": 6225,
      "truc": 6226,
      "sure": 6227,
      "signific": 6228,
      "above": 6229,
      "Arab": 6230,
      "half": 6231,
      "sequ": 6232,
      "question": 6233,
      "roduc": 6234,
      "TA": 6235,
      "ceed": 6236,
      "old": 6237,
      "However": 6238,
      "conditions": 6239,
      "plain": 6240,
      "purpo": 6241,
      "sum": 6242,
      "nership": 6243,
      "operations": 6244,
      "given": 6245,
      "ecutive": 6246,
      "material": 6247,
      "improve": 6248,
      "Af": 6249,
      "arma": 6250,
      "Im": 6251,
      "ave": 6252,
      "istan": 6253,
      "investig": 6254,
      "prehensive": 6255,
      "lines": 6256,
      "ze": 6257,
      "gency": 6258,
      "research": 6259,
      "step": 6260,
      "ink": 6261,
      "bodies": 6262,
      "much": 6263,
      "Secretariat": 6264,
      "participation": 6265,
      "ource": 6266,
      "pover": 6267,
      "beli": 6268,
      "making": 6269,
      "service": 6270,
      "authorities": 6271,
      "ES": 6272,
      "delegation": 6273,
      "rug": 6274,
      "humanitarian": 6275,
      "means": 6276,
      "free": 6277,
      "systems": 6278,
      "veral": 6279,
      "whe": 6280,
      "projects": 6281,
      "direct": 6282,
      "total": 6283,
      "ready": 6284,
      "taking": 6285,
      "anu": 6286,
      "Be": 6287,
      "Action": 6288,
      "going": 6289,
      "Union": 6290,
      "Mission": 6291,
      "family": 6292,
      "sex": 6293,
      "ori": 6294,
      "Mon": 6295,
      "armament": 6296,
      "lack": 6297,
      "note": 6298,
      "facilit": 6299,
      "poverty": 6300,
      "submitted": 6301,
      "High": 6302,
      "ank": 6303,
      "Cri": 6304,
      "reli": 6305,
      "food": 6306,
      "last": 6307,
      "ulations": 6308,
      "agencies": 6309,
      "population": 6310,
      "March": 6311,
      "request": 6312,
      "impact": 6313,
      "expec": 6314,
      "resolutions": 6315,
      "pen": 6316,
      "private": 6317,
      "Nor": 6318,
      "visory": 6319,
      "police": 6320,
      "reform": 6321,
      "market": 6322,
      "ope": 6323,
      "tar": 6324,
      "IN": 6325,
      "Tr": 6326,
      "All": 6327,
      "sk": 6328,
      "1999": 6329,
      "Protocol": 6330,
      "certain": 6331,
      "far": 6332,
      "large": 6333,
      "ON": 6334,
      "results": 6335,
      "US": 6336,
      "IS": 6337,
      "ground": 6338,
      "additional": 6339,
      "enter": 6340,
      "Sy": 6341,
      "organization": 6342,
      "prevent": 6343,
      "ca": 6344,
      "Se": 6345,
      "eval": 6346,
      "estic": 6347,
      "result": 6348,
      "personnel": 6349,
      "vious": 6350,
      "weapons": 6351,
      "strengthe": 6352,
      "ists": 6353,
      "show": 6354,
      "teur": 6355,
      "cup": 6356,
      "ody": 6357,
      "paren": 6358,
      "towards": 6359,
      "porteur": 6360,
      "ological": 6361,
      "defin": 6362,
      "mocra": 6363,
      "ided": 6364,
      "attention": 6365,
      "ward": 6366,
      "significant": 6367,
      "cir": 6368,
      "ling": 6369,
      "risk": 6370,
      "relations": 6371,
      "substan": 6372,
      "Governments": 6373,
      "Apr": 6374,
      "lit": 6375,
      "pursu": 6376,
      "discrimination": 6377,
      "cal": 6378,
      "requested": 6379,
      "198": 6380,
      "actions": 6381,
      "secret": 6382,
      "2013": 6383,
      "wide": 6384,
      "April": 6385,
      "..": 6386,
      "criminal": 6387,
      "agreed": 6388,
      "context": 6389,
      "genous": 6390,
      "That": 6391,
      "success": 6392,
      "sian": 6393,
      "goti": 6394,
      "prepar": 6395,
      "ener": 6396,
      "40": 6397,
      "rate": 6398,
      "Report": 6399,
      "ging": 6400,
      "che": 6401,
      "Rap": 6402,
      "whether": 6403,
      "status": 6404,
      "bit": 6405,
      "construc": 6406,
      "ched": 6407,
      "reflec": 6408,
      "ues": 6409,
      "pot": 6410,
      "60": 6411,
      "chan": 6412,
      "regular": 6413,
      "Sub": 6414,
      "Fed": 6415,
      "formation": 6416,
      "Pr": 6417,
      "study": 6418,
      "Aff": 6419,
      "ict": 6420,
      "1998": 6421,
      "Janu": 6422,
      "ined": 6423,
      "January": 6424,
      "fif": 6425,
      "Add": 6426,
      "space": 6427,
      "representatives": 6428,
      "better": 6429,
      "establishment": 6430,
      "especial": 6431,
      "migr": 6432,
      "amb": 6433,
      "cover": 6434,
      "growth": 6435,
      "ick": 6436,
      "especially": 6437,
      "instru": 6438,
      "ring": 6439,
      "cep": 6440,
      "Man": 6441,
      "tices": 6442,
      "These": 6443,
      "traffic": 6444,
      "domestic": 6445,
      "itation": 6446,
      "eth": 6447,
      "application": 6448,
      "gue": 6449,
      "costs": 6450,
      "poin": 6451,
      "third": 6452,
      "manent": 6453,
      "ories": 6454,
      "mandate": 6455,
      "received": 6456,
      "foreign": 6457,
      "prepare": 6458,
      "Indi": 6459,
      "irl": 6460,
      "emer": 6461,
      "quar": 6462,
      "\".": 6463,
      "tled": 6464,
      "Rapporteur": 6465,
      "Chin": 6466,
      "mocratic": 6467,
      "collec": 6468,
      "comprehensive": 6469,
      "ulture": 6470,
      "independ": 6471,
      "increased": 6472,
      "aged": 6473,
      "rules": 6474,
      "sci": 6475,
      "eration": 6476,
      "usion": 6477,
      "give": 6478,
      "wish": 6479,
      "justice": 6480,
      "abilities": 6481,
      "comes": 6482,
      "monitoring": 6483,
      "negoti": 6484,
      "called": 6485,
      "den": 6486,
      "Affairs": 6487,
      "date": 6488,
      "isms": 6489,
      "contained": 6490,
      "employment": 6491,
      "existing": 6492,
      "ele": 6493,
      "territ": 6494,
      "event": 6495,
      "production": 6496,
      "might": 6497,
      "tives": 6498,
      "ried": 6499,
      "vity": 6500,
      "wa": 6501,
      "concerning": 6502,
      "reported": 6503,
      "izing": 6504,
      "tes": 6505,
      "list": 6506,
      "Declaration": 6507,
      "tail": 6508,
      "strengthen": 6509,
      "Chinese": 6510,
      "best": 6511,
      "amount": 6512,
      "reporting": 6513,
      "ysis": 6514,
      "eas": 6515,
      "Vi": 6516,
      "explo": 6517,
      "problems": 6518,
      "representative": 6519,
      "Sup": 6520,
      "strong": 6521,
      "ali": 6522,
      "environmental": 6523,
      "standards": 6524,
      "statement": 6525,
      "coordination": 6526,
      "ession": 6527,
      "close": 6528,
      "legislation": 6529,
      "posed": 6530,
      "terms": 6531,
      "girl": 6532,
      "Palestin": 6533,
      "common": 6534,
      "introduc": 6535,
      "relating": 6536,
      "Ter": 6537,
      "several": 6538,
      "belie": 6539,
      "due": 6540,
      "treatment": 6541,
      "five": 6542,
      "Fe": 6543,
      "reedom": 6544,
      "diffic": 6545,
      "Act": 6546,
      "responsibility": 6547,
      "ars": 6548,
      "equip": 6549,
      "practi": 6550,
      "Admin": 6551,
      "atis": 6552,
      "procedures": 6553,
      "Go": 6554,
      "body": 6555,
      "Represent": 6556,
      "raq": 6557,
      "house": 6558,
      "Direc": 6559,
      "funds": 6560,
      "therefore": 6561,
      "forman": 6562,
      "gether": 6563,
      "Iraq": 6564,
      "sug": 6565,
      "Executive": 6566,
      "rais": 6567,
      "record": 6568,
      "maintain": 6569,
      "America": 6570,
      "graph": 6571,
      "CR": 6572,
      "serious": 6573,
      "increasing": 6574,
      "::": 6575,
      "estim": 6576,
      "deal": 6577,
      "effici": 6578,
      "supp": 6579,
      "aware": 6580,
      "next": 6581,
      "included": 6582,
      "rea": 6583,
      "anti": 6584,
      "fil": 6585,
      "mechanisms": 6586,
      "subject": 6587,
      "ledge": 6588,
      "missions": 6589,
      "practices": 6590,
      "principles": 6591,
      "armed": 6592,
      "achieve": 6593,
      "circ": 6594,
      "labor": 6595,
      "threat": 6596,
      "Jo": 6597,
      "expressed": 6598,
      "least": 6599,
      "become": 6600,
      "joint": 6601,
      "example": 6602,
      "ask": 6603,
      "ually": 6604,
      "va": 6605,
      "energy": 6606,
      "recent": 6607,
      "took": 6608,
      "administrative": 6609,
      "def": 6610,
      "another": 6611,
      "Can": 6612,
      "formance": 6613,
      "agreement": 6614,
      "ck": 6615,
      "bru": 6616,
      "mal": 6617,
      "sent": 6618,
      "lands": 6619,
      "ER": 6620,
      "previous": 6621,
      "alo": 6622,
      "wee": 6623,
      "Peace": 6624,
      "look": 6625,
      "oples": 6626,
      "medi": 6627,
      "response": 6628,
      "entitled": 6629,
      "Sp": 6630,
      "together": 6631,
      "ather": 6632,
      "income": 6633,
      "already": 6634,
      "stitute": 6635,
      "writ": 6636,
      "often": 6637,
      "ah": 6638,
      "bed": 6639,
      "PA": 6640,
      "challenges": 6641,
      "associ": 6642,
      "aring": 6643,
      "rep": 6644,
      "az": 6645,
      "face": 6646,
      "UNC": 6647,
      "gust": 6648,
      "providing": 6649,
      "days": 6650,
      "rain": 6651,
      "decided": 6652,
      "Ministry": 6653,
      "ought": 6654,
      "Ro": 6655,
      "Child": 6656,
      "tims": 6657,
      "exer": 6658,
      "shop": 6659,
      "assessment": 6660,
      "What": 6661,
      "guide": 6662,
      "obligations": 6663,
      "rule": 6664,
      "regarding": 6665,
      "langu": 6666,
      "cultural": 6667,
      "Rus": 6668,
      "kind": 6669,
      "provides": 6670,
      "aster": 6671,
      "When": 6672,
      "occup": 6673,
      "secretariat": 6674,
      "top": 6675,
      "investment": 6676,
      "too": 6677,
      "using": 6678,
      "People": 6679,
      "connec": 6680,
      "August": 6681,
      "Ob": 6682,
      "ners": 6683,
      "problem": 6684,
      "org": 6685,
      "Ap": 6686,
      "past": 6687,
      "My": 6688,
      "UNDP": 6689,
      "contract": 6690,
      "freedom": 6691,
      "cam": 6692,
      "annex": 6693,
      "riend": 6694,
      "contributions": 6695,
      "decisions": 6696,
      "planning": 6697,
      "ased": 6698,
      "addressed": 6699,
      "anel": 6700,
      "bruary": 6701,
      "February": 6702,
      "contribu": 6703,
      "peti": 6704,
      "refer": 6705,
      "cris": 6706,
      "tiz": 6707,
      "performance": 6708,
      "EC": 6709,
      "refuge": 6710,
      "apan": 6711,
      "analysis": 6712,
      "arms": 6713,
      "One": 6714,
      "AN": 6715,
      "obser": 6716,
      "Advisory": 6717,
      "strategy": 6718,
      "rati": 6719,
      "ribun": 6720,
      "think": 6721,
      "equipment": 6722,
      "team": 6723,
      "Japan": 6724,
      "affir": 6725,
      "ior": 6726,
      "ustri": 6727,
      "ateg": 6728,
      "ming": 6729,
      "dated": 6730,
      "judic": 6731,
      "Palestinian": 6732,
      "early": 6733,
      "arrange": 6734,
      "Other": 6735,
      "conven": 6736,
      "company": 6737,
      "strengthening": 6738,
      "though": 6739,
      "hance": 6740,
      "broad": 6741,
      "adoption": 6742,
      "uses": 6743,
      "AT": 6744,
      "placed": 6745,
      "III": 6746,
      "Minister": 6747,
      "East": 6748,
      "drug": 6749,
      "Service": 6750,
      "os": 6751,
      "Ne": 6752,
      "practice": 6753,
      "ours": 6754,
      "Plan": 6755,
      "cle": 6756,
      "transfer": 6757,
      "tors": 6758,
      "quate": 6759,
      "Sum": 6760,
      "exerc": 6761,
      "forms": 6762,
      "meet": 6763,
      "indigenous": 6764,
      "bri": 6765,
      "paper": 6766,
      "matter": 6767,
      "times": 6768,
      "mic": 6769,
      "emphas": 6770,
      "office": 6771,
      "Israel": 6772,
      "Asia": 6773,
      "Director": 6774,
      "semin": 6775,
      "oung": 6776,
      "gal": 6777,
      "Some": 6778,
      "ream": 6779,
      "however": 6780,
      "victims": 6781,
      "Treat": 6782,
      "aran": 6783,
      "proceed": 6784,
      "ering": 6785,
      "oney": 6786,
      "short": 6787,
      "gent": 6788,
      "ire": 6789,
      "effect": 6790,
      "While": 6791,
      "His": 6792,
      "custo": 6793,
      "prevention": 6794,
      "dialo": 6795,
      "bur": 6796,
      "ler": 6797,
      "terrorism": 6798,
      "consultations": 6799,
      "matic": 6800,
      "according": 6801,
      "tis": 6802,
      "corpor": 6803,
      "fail": 6804,
      "want": 6805,
      "economy": 6806,
      "enhance": 6807,
      "Ass": 6808,
      "Eng": 6809,
      "documents": 6810,
      "value": 6811,
      "Information": 6812,
      "changes": 6813,
      "IT": 6814,
      "integration": 6815,
      "dic": 6816,
      "\",": 6817,
      "needed": 6818,
      "commitment": 6819,
      "met": 6820,
      "cred": 6821,
      "wit": 6822,
      "Ms": 6823,
      "initiatives": 6824,
      "Cont": 6825,
      "equality": 6826,
      "bring": 6827,
      "Col": 6828,
      "knowledge": 6829,
      "forces": 6830,
      "ending": 6831,
      "multi": 6832,
      "para": 6833,
      "ash": 6834,
      "name": 6835,
      "home": 6836,
      "sal": 6837,
      "lies": 6838,
      "crime": 6839,
      "property": 6840,
      "35": 6841,
      "consist": 6842,
      "disarmament": 6843,
      "laws": 6844,
      "friend": 6845,
      "around": 6846,
      "liance": 6847,
      "Centre": 6848,
      "EF": 6849,
      "matters": 6850,
      "pass": 6851,
      "peacekeeping": 6852,
      "hold": 6853,
      "ii": 6854,
      "hip": 6855,
      "AC": 6856,
      "responsible": 6857,
      "detail": 6858,
      "Char": 6859,
      "rup": 6860,
      "clim": 6861,
      "ditional": 6862,
      "iter": 6863,
      "always": 6864,
      "annual": 6865,
      "63": 6866,
      "origin": 6867,
      "Tec": 6868,
      "table": 6869,
      "operational": 6870,
      "partnership": 6871,
      "others": 6872,
      "never": 6873,
      "plans": 6874,
      "1997": 6875,
      "demand": 6876,
      "Central": 6877,
      "living": 6878,
      "basic": 6879,
      "safe": 6880,
      "vered": 6881,
      "dialogue": 6882,
      "section": 6883,
      "lied": 6884,
      "network": 6885,
      "Representative": 6886,
      "45": 6887,
      "que": 6888,
      "final": 6889,
      "job": 6890,
      "coming": 6891,
      "Further": 6892,
      "expected": 6893,
      "organized": 6894,
      "ics": 6895,
      "preci": 6896,
      "course": 6897,
      "stry": 6898,
      "Ann": 6899,
      "reason": 6900,
      "trafficking": 6901,
      "eli": 6902,
      "Mar": 6903,
      "run": 6904,
      "ied": 6905,
      "Techn": 6906,
      "young": 6907,
      "rap": 6908,
      "transport": 6909,
      "quarters": 6910,
      "ulated": 6911,
      "respective": 6912,
      "draw": 6913,
      "acter": 6914,
      "ib": 6915,
      "33": 6916,
      "Region": 6917,
      "behalf": 6918,
      "flow": 6919,
      "sexual": 6920,
      "48": 6921,
      "ines": 6922,
      "1996": 6923,
      "little": 6924,
      "compan": 6925,
      "funding": 6926,
      "aspec": 6927,
      "IDS": 6928,
      "requests": 6929,
      "priority": 6930,
      "Mal": 6931,
      "jur": 6932,
      "HIV": 6933,
      "biennium": 6934,
      "natural": 6935,
      "hab": 6936,
      "Si": 6937,
      "promotion": 6938,
      "death": 6939,
      "peoples": 6940,
      "ably": 6941,
      "ister": 6942,
      "57": 6943,
      "solution": 6944,
      "univers": 6945,
      "thern": 6946,
      "forward": 6947,
      "ticles": 6948,
      "few": 6949,
      "reduction": 6950,
      "EN": 6951,
      "sets": 6952,
      "zer": 6953,
      "construction": 6954,
      "months": 6955,
      "Accord": 6956,
      "complain": 6957,
      "rac": 6958,
      "American": 6959,
      "sugges": 6960,
      "DC": 6961,
      "room": 6962,
      "experience": 6963,
      "inst": 6964,
      "stu": 6965,
      "ton": 6966,
      "happ": 6967,
      "AS": 6968,
      "teach": 6969,
      "veness": 6970,
      "prepared": 6971,
      "procedure": 6972,
      "class": 6973,
      "ama": 6974,
      "violations": 6975,
      "ribunal": 6976,
      "partners": 6977,
      "yet": 6978,
      "55": 6979,
      "67": 6980,
      "joy": 6981,
      "promoting": 6982,
      "workers": 6983,
      "struct": 6984,
      "strategies": 6985,
      "2014": 6986,
      "potential": 6987,
      "oman": 6988,
      "purpose": 6989,
      "principle": 6990,
      "Democratic": 6991,
      "model": 6992,
      "Univers": 6993,
      "ped": 6994,
      "Commun": 6995,
      "electr": 6996,
      "infr": 6997,
      "37": 6998,
      "deploy": 6999,
      "pat": 7000,
      "CC": 7001,
      "agreements": 7002,
      "exchange": 7003,
      "strategic": 7004,
      "involved": 7005,
      "money": 7006,
      "notes": 7007,
      "affected": 7008,
      "udit": 7009,
      "AIDS": 7010,
      "Under": 7011,
      "49": 7012,
      "cell": 7013,
      "nam": 7014,
      "steps": 7015,
      "Bank": 7016,
      "mean": 7017,
      "58": 7018,
      "xim": 7019,
      "greater": 7020,
      "alling": 7021,
      "awareness": 7022,
      "approved": 7023,
      "supported": 7024,
      "mod": 7025,
      "communication": 7026,
      "pu": 7027,
      "crisis": 7028,
      "san": 7029,
      "conduct": 7030,
      "Head": 7031,
      "evaluation": 7032,
      "via": 7033,
      "hist": 7034,
      "pendit": 7035,
      "65": 7036,
      "nature": 7037,
      "carried": 7038,
      "girls": 7039,
      "tation": 7040,
      "alleg": 7041,
      "recommended": 7042,
      "higher": 7043,
      "treaty": 7044,
      "discussion": 7045,
      "settle": 7046,
      "dam": 7047,
      "unt": 7048,
      "statements": 7049,
      "Division": 7050,
      "lat": 7051,
      "facilities": 7052,
      "ances": 7053,
      "1994": 7054,
      "limited": 7055,
      "kes": 7056,
      "ither": 7057,
      "sid": 7058,
      "King": 7059,
      "During": 7060,
      "mechanism": 7061,
      "descri": 7062,
      "until": 7063,
      "issued": 7064,
      "stances": 7065,
      "vere": 7066,
      "implementing": 7067,
      "Tur": 7068,
      "59": 7069,
      "evid": 7070,
      "Global": 7071,
      "Coven": 7072,
      "having": 7073,
      "rop": 7074,
      "carry": 7075,
      "cannot": 7076,
      "understanding": 7077,
      "1995": 7078,
      "Ger": 7079,
      "seven": 7080,
      "64": 7081,
      "mention": 7082,
      "Kore": 7083,
      "PR": 7084,
      "guaran": 7085,
      "According": 7086,
      "officials": 7087,
      "products": 7088,
      "IL": 7089,
      "objectives": 7090,
      "uations": 7091,
      "gener": 7092,
      "essential": 7093,
      "suffici": 7094,
      "Commissioner": 7095,
      "instruments": 7096,
      "ada": 7097,
      "capital": 7098,
      "begin": 7099,
      "aimed": 7100,
      "tilateral": 7101,
      "rural": 7102,
      "illennium": 7103,
      "adequate": 7104,
      "citiz": 7105,
      "climate": 7106,
      "vul": 7107,
      "offices": 7108,
      "function": 7109,
      "saf": 7110,
      "roll": 7111,
      "implemented": 7112,
      "emb": 7113,
      "47": 7114,
      "committed": 7115,
      "vised": 7116,
      "mical": 7117,
      "Trade": 7118,
      "hard": 7119,
      "Sud": 7120,
      "ador": 7121,
      "uce": 7122,
      "uni": 7123,
      "inc": 7124,
      "done": 7125,
      "Implement": 7126,
      "elim": 7127,
      "flu": 7128,
      "Management": 7129,
      "opportunities": 7130,
      "return": 7131,
      "lam": 7132,
      "site": 7133,
      "facilitate": 7134,
      "Treaty": 7135,
      "find": 7136,
      "posts": 7137,
      "iting": 7138,
      "Russian": 7139,
      "conclud": 7140,
      "Covenant": 7141,
      "enhan": 7142,
      "media": 7143,
      "today": 7144,
      "Offic": 7145,
      "communities": 7146,
      "entific": 7147,
      "astruc": 7148,
      "live": 7149,
      "move": 7150,
      "competi": 7151,
      "100": 7152,
      "share": 7153,
      "safety": 7154,
      "complete": 7155,
      "star": 7156,
      "197": 7157,
      "EP": 7158,
      "anda": 7159,
      "tool": 7160,
      "enforce": 7161,
      "appreci": 7162,
      "whole": 7163,
      "collabor": 7164,
      "tran": 7165,
      "Chairman": 7166,
      "Do": 7167,
      "holders": 7168,
      "tered": 7169,
      "equal": 7170,
      "ones": 7171,
      "statis": 7172,
      "61": 7173,
      "experts": 7174,
      "ature": 7175,
      "39": 7176,
      "former": 7177,
      "feel": 7178,
      "court": 7179,
      "34": 7180,
      "arrangements": 7181,
      "38": 7182,
      "test": 7183,
      "ION": 7184,
      "accept": 7185,
      "Ab": 7186,
      "separ": 7187,
      "thus": 7188,
      "character": 7189,
      "protect": 7190,
      "seem": 7191,
      "tial": 7192,
      "benefits": 7193,
      "tiveness": 7194,
      "Gene": 7195,
      "Her": 7196,
      "tection": 7197,
      "ured": 7198,
      "dle": 7199,
      "amental": 7200,
      "vulner": 7201,
      "HR": 7202,
      "apply": 7203,
      "Oper": 7204,
      "gg": 7205,
      "Coordin": 7206,
      "AL": 7207,
      "Str": 7208,
      "kets": 7209,
      "proposals": 7210,
      "Support": 7211,
      "ork": 7212,
      "isted": 7213,
      "functions": 7214,
      "unish": 7215,
      "agric": 7216,
      "enjoy": 7217,
      "ood": 7218,
      "Sudan": 7219,
      "individuals": 7220,
      "ologies": 7221,
      "positive": 7222,
      "urban": 7223,
      "Millennium": 7224,
      "AR": 7225,
      "minal": 7226,
      "goals": 7227,
      "More": 7228,
      "ensuring": 7229,
      "Afgh": 7230,
      "medical": 7231,
      "famil": 7232,
      "processes": 7233,
      "Pers": 7234,
      "Tribunal": 7235,
      "week": 7236,
      "identify": 7237,
      "Permanent": 7238,
      "Environment": 7239,
      "laun": 7240,
      "Finan": 7241,
      "aid": 7242,
      "selec": 7243,
      "selves": 7244,
      "informed": 7245,
      "financing": 7246,
      "cr": 7247,
      "evidence": 7248,
      "rought": 7249,
      "independent": 7250,
      "Panel": 7251,
      "Public": 7252,
      "Review": 7253,
      "Agenda": 7254,
      "immedi": 7255,
      "expendit": 7256,
      "overall": 7257,
      "Ha": 7258,
      "counter": 7259,
      "York": 7260,
      "presented": 7261,
      "Federation": 7262,
      "bre": 7263,
      "infrastruc": 7264,
      "administration": 7265,
      "currently": 7266,
      "below": 7267,
      "stated": 7268,
      "profession": 7269,
      "guidelines": 7270,
      "Afghan": 7271,
      "Meeting": 7272,
      "ians": 7273,
      "aspects": 7274,
      "recommendation": 7275,
      "Constitution": 7276,
      "views": 7277,
      "attack": 7278,
      "uel": 7279,
      "opportunity": 7280,
      "ever": 7281,
      "UNO": 7282,
      "typ": 7283,
      "authority": 7284,
      "68": 7285,
      "ferences": 7286,
      "observ": 7287,
      "hours": 7288,
      "exercise": 7289,
      "rence": 7290,
      "tax": 7291,
      "Geneva": 7292,
      "62": 7293,
      "poor": 7294,
      "Criminal": 7295,
      "Op": 7296,
      "mind": 7297,
      "judicial": 7298,
      "Assist": 7299,
      "host": 7300,
      "Territ": 7301,
      "dri": 7302,
      "labour": 7303,
      "obtain": 7304,
      "manner": 7305,
      "minor": 7306,
      "contribute": 7307,
      "iddle": 7308,
      "English": 7309,
      "Cor": 7310,
      "stake": 7311,
      "urement": 7312,
      "bor": 7313,
      "conducted": 7314,
      "arri": 7315,
      "regions": 7316,
      "reduce": 7317,
      "items": 7318,
      "undertaken": 7319,
      "guid": 7320,
      "workshop": 7321,
      "Cooperation": 7322,
      "vey": 7323,
      "got": 7324,
      "ligh": 7325,
      "proposal": 7326,
      "border": 7327,
      "signed": 7328,
      "formal": 7329,
      "questions": 7330,
      "aries": 7331,
      "fundamental": 7332,
      "Implementation": 7333,
      "relationship": 7334,
      "66": 7335,
      "nic": 7336,
      "away": 7337,
      "Educ": 7338,
      "multilateral": 7339,
      "prosec": 7340,
      "stress": 7341,
      "love": 7342,
      "Agree": 7343,
      "dol": 7344,
      "transi": 7345,
      "circum": 7346,
      "Trans": 7347,
      "TH": 7348,
      "rates": 7349,
      "effects": 7350,
      "compon": 7351,
      "articles": 7352,
      "OR": 7353,
      "Ci": 7354,
      "32": 7355,
      "lifer": 7356,
      "Des": 7357,
      "1993": 7358,
      "hous": 7359,
      "Leban": 7360,
      "54": 7361,
      "phys": 7362,
      "CE": 7363,
      "negotiations": 7364,
      "enable": 7365,
      "compliance": 7366,
      "):": 7367,
      "remains": 7368,
      "structure": 7369,
      "near": 7370,
      "institutional": 7371,
      "alls": 7372,
      "integrated": 7373,
      "delegations": 7374,
      "internal": 7375,
      "primary": 7376,
      "materials": 7377,
      "extra": 7378,
      "ey": 7379,
      "ills": 7380,
      "Kingdom": 7381,
      "regulations": 7382,
      "target": 7383,
      "resource": 7384,
      "liferation": 7385,
      "Charter": 7386,
      "AM": 7387,
      "Agency": 7388,
      "inion": 7389,
      "pursuant": 7390,
      "alloc": 7391,
      "aking": 7392,
      "categ": 7393,
      "ww": 7394,
      "communications": 7395,
      "recognized": 7396,
      "stream": 7397,
      "analy": 7398,
      "combat": 7399,
      "mobil": 7400,
      "concerns": 7401,
      "cru": 7402,
      "Fr": 7403,
      "Non": 7404,
      "tro": 7405,
      "Justice": 7406,
      "53": 7407,
      "infrastructure": 7408,
      "Health": 7409,
      "ins": 7410,
      "reference": 7411,
      "sor": 7412,
      "cooper": 7413,
      "untary": 7414,
      "By": 7415,
      "ICEF": 7416,
      "once": 7417,
      "travel": 7418,
      "indu": 7419,
      "committee": 7420,
      "enty": 7421,
      "language": 7422,
      "ustrial": 7423,
      "round": 7424,
      "fav": 7425,
      "recommends": 7426,
      "students": 7427,
      "ief": 7428,
      "gre": 7429,
      "vote": 7430,
      "Pri": 7431,
      "identified": 7432,
      "connection": 7433,
      "India": 7434,
      "gets": 7435,
      "52": 7436,
      "fish": 7437,
      "conference": 7438,
      "letter": 7439,
      "prison": 7440,
      "hy": 7441,
      "restr": 7442,
      "GO": 7443,
      "simil": 7444,
      "Sa": 7445,
      "ij": 7446,
      "Hong": 7447,
      "36": 7448,
      "tempor": 7449,
      "wan": 7450,
      "central": 7451,
      "ensus": 7452,
      "inten": 7453,
      "44": 7454,
      "officers": 7455,
      "Regional": 7456,
      "commitments": 7457,
      "asked": 7458,
      "ides": 7459,
      "Pac": 7460,
      "io": 7461,
      "ech": 7462,
      "Lat": 7463,
      "companies": 7464,
      "Israeli": 7465,
      "dy": 7466,
      "sump": 7467,
      "Forum": 7468,
      "fire": 7469,
      "Korea": 7470,
      "sibilities": 7471,
      "onic": 7472,
      "Since": 7473,
      "tees": 7474,
      "speak": 7475,
      "percent": 7476,
      "nov": 7477,
      "mentioned": 7478,
      "deep": 7479,
      "juris": 7480,
      "ago": 7481,
      "Civil": 7482,
      "crimes": 7483,
      "Let": 7484,
      "preparation": 7485,
      "log": 7486,
      "avo": 7487,
      "entities": 7488,
      "forest": 7489,
      "51": 7490,
      "detention": 7491,
      "critical": 7492,
      "irst": 7493,
      "vin": 7494,
      "refugees": 7495,
      "methods": 7496,
      "industry": 7497,
      "paid": 7498,
      "Pacific": 7499,
      "56": 7500,
      "mother": 7501,
      "referred": 7502,
      "pite": 7503,
      "ps": 7504,
      "things": 7505,
      "transparen": 7506,
      "itself": 7507,
      "forced": 7508,
      "enforcement": 7509,
      "effectively": 7510,
      "After": 7511,
      "bro": 7512,
      "illed": 7513,
      "ung": 7514,
      "Canada": 7515,
      "introduced": 7516,
      "satis": 7517,
      "Bel": 7518,
      "core": 7519,
      "consequ": 7520,
      "parts": 7521,
      "difficult": 7522,
      "ico": 7523,
      "demon": 7524,
      "benefit": 7525,
      "compens": 7526,
      "manag": 7527,
      "liament": 7528,
      "utes": 7529,
      "surance": 7530,
      "Ge": 7531,
      "words": 7532,
      "believe": 7533,
      "altern": 7534,
      "web": 7535,
      "aver": 7536,
      "sessions": 7537,
      "sufficient": 7538,
      "outcome": 7539,
      "commission": 7540,
      "UNICEF": 7541,
      "universal": 7542,
      "OF": 7543,
      "oma": 7544,
      "Code": 7545,
      "Agreement": 7546,
      "neg": 7547,
      "Iran": 7548,
      "ically": 7549,
      "known": 7550,
      "teen": 7551,
      "pointed": 7552,
      "purposes": 7553,
      "Protection": 7554,
      "Second": 7555,
      "goods": 7556,
      "rather": 7557,
      "achieved": 7558,
      "commer": 7559,
      "Fore": 7560,
      "interests": 7561,
      "Unit": 7562,
      "CN": 7563,
      "tell": 7564,
      "opinion": 7565,
      "dollar": 7566,
      "leader": 7567,
      "city": 7568,
      "Sh": 7569,
      "itable": 7570,
      "acqu": 7571,
      "ternal": 7572,
      "Austr": 7573,
      "izes": 7574,
      "chang": 7575,
      "came": 7576,
      "similar": 7577,
      "remo": 7578,
      "activity": 7579,
      "How": 7580,
      "Bra": 7581,
      "Part": 7582,
      "occur": 7583,
      "ig": 7584,
      "Ser": 7585,
      "Cub": 7586,
      "organ": 7587,
      "Institute": 7588,
      "OS": 7589,
      "hon": 7590,
      "improving": 7591,
      "paragraphs": 7592,
      "claims": 7593,
      "aly": 7594,
      "balance": 7595,
      "Islam": 7596,
      "loo": 7597,
      "zil": 7598,
      "seen": 7599,
      "Kong": 7600,
      "objective": 7601,
      "zed": 7602,
      "effort": 7603,
      "gain": 7604,
      "expand": 7605,
      "kers": 7606,
      "First": 7607,
      "minim": 7608,
      "directly": 7609,
      "informal": 7610,
      "apter": 7611,
      "debt": 7612,
      "points": 7613,
      "pet": 7614,
      "TAD": 7615,
      "personal": 7616,
      "assets": 7617,
      "Syri": 7618,
      "vac": 7619,
      "verse": 7620,
      "advant": 7621,
      "prohi": 7622,
      "Summit": 7623,
      "participate": 7624,
      "ime": 7625,
      "circumstances": 7626,
      "territory": 7627,
      "UNCTAD": 7628,
      "Su": 7629,
      "prises": 7630,
      "families": 7631,
      "Services": 7632,
      "AP": 7633,
      "throughout": 7634,
      "fourth": 7635,
      "governance": 7636,
      "schools": 7637,
      "super": 7638,
      "ping": 7639,
      "outside": 7640,
      "indicated": 7641,
      "hope": 7642,
      "appoint": 7643,
      "Section": 7644,
      "compet": 7645,
      "punish": 7646,
      "Party": 7647,
      "mut": 7648,
      "supply": 7649,
      "across": 7650,
      "soon": 7651,
      "University": 7652,
      "themselves": 7653,
      "oil": 7654,
      "leave": 7655,
      "offer": 7656,
      "adjust": 7657,
      "ified": 7658,
      "fifty": 7659,
      "left": 7660,
      "prise": 7661,
      "along": 7662,
      "sight": 7663,
      "substantive": 7664,
      "accom": 7665,
      "interpre": 7666,
      "Such": 7667,
      "restric": 7668,
      "ect": 7669,
      "create": 7670,
      "ya": 7671,
      "won": 7672,
      "ongoing": 7673,
      "excl": 7674,
      "UNF": 7675,
      "says": 7676,
      "usive": 7677,
      "moder": 7678,
      "likely": 7679,
      "Crime": 7680,
      "scale": 7681,
      "contribut": 7682,
      "paign": 7683,
      "amend": 7684,
      "atch": 7685,
      "disabilities": 7686,
      "recover": 7687,
      "46": 7688,
      "enance": 7689,
      "effectiveness": 7690,
      "geria": 7691,
      "provisional": 7692,
      "portion": 7693,
      "tren": 7694,
      "pub": 7695,
      "Foreign": 7696,
      "elements": 7697,
      "firm": 7698,
      "fair": 7699,
      "omb": 7700,
      "ery": 7701,
      "noti": 7702,
      "fron": 7703,
      "Annex": 7704,
      "whose": 7705,
      "centres": 7706,
      "inf": 7707,
      "culture": 7708,
      "tili": 7709,
      "recru": 7710,
      "export": 7711,
      "Ni": 7712,
      "Bur": 7713,
      "relation": 7714,
      "France": 7715,
      "Associ": 7716,
      "istic": 7717,
      "2015": 7718,
      "gious": 7719,
      "fem": 7720,
      "brought": 7721,
      "comed": 7722,
      "aps": 7723,
      "Congo": 7724,
      "ruption": 7725,
      "technologies": 7726,
      "standard": 7727,
      "Yu": 7728,
      "scope": 7729,
      "lad": 7730,
      "visit": 7731,
      "Po": 7732,
      "curement": 7733,
      "participants": 7734,
      "productive": 7735,
      "factors": 7736,
      "cop": 7737,
      "sources": 7738,
      "Political": 7739,
      "guidance": 7740,
      "ane": 7741,
      "brief": 7742,
      "Exper": 7743,
      "Am": 7744,
      "ethnic": 7745,
      "expert": 7746,
      "maintenance": 7747,
      "encourage": 7748,
      "avoid": 7749,
      "includes": 7750,
      "sumption": 7751,
      "traditional": 7752,
      "uty": 7753,
      "estimated": 7754,
      "sectors": 7755,
      "Ma": 7756,
      "flo": 7757,
      "situations": 7758,
      "sell": 7759,
      "lease": 7760,
      "ees": 7761,
      "price": 7762,
      "Mex": 7763,
      "IP": 7764,
      "advance": 7765,
      "chemical": 7766,
      "covered": 7767,
      "Sci": 7768,
      "temporary": 7769,
      "ograph": 7770,
      "Over": 7771,
      "NGO": 7772,
      "events": 7773,
      "jurisdic": 7774,
      "hic": 7775,
      "Som": 7776,
      "stakeholders": 7777,
      "applied": 7778,
      "Children": 7779,
      "estern": 7780,
      "spo": 7781,
      "ield": 7782,
      "migration": 7783,
      "practical": 7784,
      "type": 7785,
      "DA": 7786,
      "distribution": 7787,
      "Also": 7788,
      "fle": 7789,
      "duce": 7790,
      "stability": 7791,
      "delivery": 7792,
      "discussions": 7793,
      "bitr": 7794,
      "radi": 7795,
      "physical": 7796,
      "cut": 7797,
      "lot": 7798,
      "olid": 7799,
      "later": 7800,
      "efficiency": 7801,
      "resol": 7802,
      "ule": 7803,
      "improved": 7804,
      "sim": 7805,
      "bir": 7806,
      "billion": 7807,
      "revised": 7808,
      "civilian": 7809,
      "dou": 7810,
      "dest": 7811,
      "Force": 7812,
      "const": 7813,
      "UNEP": 7814,
      "welcomed": 7815,
      "anger": 7816,
      "intergovernmental": 7817,
      "delay": 7818,
      "turn": 7819,
      "uter": 7820,
      "proceedings": 7821,
      "tit": 7822,
      "jected": 7823,
      "bean": 7824,
      "Ph": 7825,
      "enary": 7826,
      "Bu": 7827,
      "41": 7828,
      "stead": 7829,
      "pose": 7830,
      "Afghanistan": 7831,
      "iss": 7832,
      "42": 7833,
      "book": 7834,
      "Administrative": 7835,
      "finding": 7836,
      "Dra": 7837,
      "markets": 7838,
      "regul": 7839,
      "perform": 7840,
      "1990": 7841,
      "69": 7842,
      "torture": 7843,
      "loss": 7844,
      "Education": 7845,
      "Fif": 7846,
      "associated": 7847,
      "gest": 7848,
      "cross": 7849,
      "abor": 7850,
      "either": 7851,
      "70": 7852,
      "plications": 7853,
      "cand": 7854,
      "lower": 7855,
      "mitted": 7856,
      "trust": 7857,
      "initiative": 7858,
      "credit": 7859,
      "collaboration": 7860,
      "responsibilities": 7861,
      "Germany": 7862,
      "indicators": 7863,
      "win": 7864,
      "bey": 7865,
      "priorities": 7866,
      "peaceful": 7867,
      "ax": 7868,
      "icit": 7869,
      "son": 7870,
      "dissemin": 7871,
      "System": 7872,
      "wait": 7873,
      "confid": 7874,
      "night": 7875,
      "campaign": 7876,
      "influ": 7877,
      "developments": 7878,
      "Brazil": 7879,
      "UNH": 7880,
      "calls": 7881,
      "abuse": 7882,
      "thought": 7883,
      "Goals": 7884,
      "complex": 7885,
      "extre": 7886,
      "spir": 7887,
      "states": 7888,
      "na": 7889,
      "really": 7890,
      "ously": 7891,
      "continues": 7892,
      "citizens": 7893,
      "legislative": 7894,
      "43": 7895,
      "start": 7896,
      "scientific": 7897,
      "UNM": 7898,
      "average": 7899,
      "versity": 7900,
      "leaders": 7901,
      "tries": 7902,
      "spon": 7903,
      "investigation": 7904,
      "reaties": 7905,
      "achieving": 7906,
      "arib": 7907,
      "ats": 7908,
      "reached": 7909,
      "Cy": 7910,
      "omin": 7911,
      "Islamic": 7912,
      "charge": 7913,
      "something": 7914,
      "Ku": 7915,
      "publish": 7916,
      "istics": 7917,
      "ancy": 7918,
      "religious": 7919,
      "why": 7920,
      "went": 7921,
      "cause": 7922,
      "Carib": 7923,
      "sn": 7924,
      "positions": 7925,
      "voluntary": 7926,
      "Sust": 7927,
      "Sustain": 7928,
      "Em": 7929,
      "inary": 7930,
      "settlement": 7931,
      "oto": 7932,
      "exten": 7933,
      "ished": 7934,
      "mass": 7935,
      "sound": 7936,
      "anced": 7937,
      "Caribbean": 7938,
      "enced": 7939,
      "THE": 7940,
      "vehic": 7941,
      "Liber": 7942,
      "North": 7943,
      "wed": 7944,
      "single": 7945,
      "elections": 7946,
      "transition": 7947,
      "reiter": 7948,
      "periodic": 7949,
      "receive": 7950,
      "wise": 7951,
      "rench": 7952,
      "ury": 7953,
      "proliferation": 7954,
      "UNHCR": 7955,
      "extent": 7956,
      "audit": 7957,
      "mental": 7958,
      "ption": 7959,
      "difficul": 7960,
      "80": 7961,
      "source": 7962,
      "arrest": 7963,
      "big": 7964,
      "innov": 7965,
      "emergency": 7966,
      "supporting": 7967,
      "housing": 7968,
      "specialized": 7969,
      "comments": 7970,
      "vulnerable": 7971,
      "discussed": 7972,
      "longer": 7973,
      "continuing": 7974,
      "Mexico": 7975,
      "gres": 7976,
      "units": 7977,
      "economies": 7978,
      "studies": 7979,
      "agency": 7980,
      "addressing": 7981,
      "ica": 7982,
      "West": 7983,
      "Pak": 7984,
      "tre": 7985,
      "subsequ": 7986,
      "Bud": 7987,
      "raised": 7988,
      "truction": 7989,
      "invited": 7990,
      "ania": 7991,
      "bank": 7992,
      "industrial": 7993,
      "bl": 7994,
      "rely": 7995,
      "twenty": 7996,
      "Joint": 7997,
      "Recalling": 7998,
      "Elec": 7999,
      "consistent": 8000,
      "77": 8001,
      "Furthermore": 8002,
      "mach": 8003,
      "usu": 8004,
      "pi": 8005,
      "completed": 8006,
      "Cuba": 8007,
      "goal": 8008,
      "appear": 8009,
      "tur": 8010,
      "riter": 8011,
      "IF": 8012,
      "depart": 8013,
      "ster": 8014,
      "pred": 8015,
      "sched": 8016,
      "ication": 8017,
      "permanent": 8018,
      "sof": 8019,
      "debate": 8020,
      "types": 8021,
      "violation": 8022,
      "elimin": 8023,
      "successful": 8024,
      "growing": 8025,
      "sixty": 8026,
      "yl": 8027,
      "determination": 8028,
      "appeal": 8029,
      "dr": 8030,
      "($": 8031,
      "ends": 8032,
      "Headquarters": 8033,
      "Many": 8034,
      "bound": 8035,
      "actors": 8036,
      "Australia": 8037,
      "sanc": 8038,
      "fifth": 8039,
      "approval": 8040,
      "Med": 8041,
      "pread": 8042,
      "commercial": 8043,
      "establishing": 8044,
      "gas": 8045,
      "troop": 8046,
      "ites": 8047,
      "Although": 8048,
      "compensation": 8049,
      "sea": 8050,
      "stop": 8051,
      "Pakistan": 8052,
      "woman": 8053,
      "utili": 8054,
      "boo": 8055,
      "consultation": 8056,
      ".,": 8057,
      "option": 8058,
      "adap": 8059,
      "designed": 8060,
      "modi": 8061,
      "lives": 8062,
      "youth": 8063,
      "ying": 8064,
      "stage": 8065,
      "reserv": 8066,
      "hop": 8067,
      "mine": 8068,
      "demo": 8069,
      "external": 8070,
      "concept": 8071,
      "adopt": 8072,
      "Countries": 8073,
      "Sustainable": 8074,
      "Syrian": 8075,
      "makes": 8076,
      "ification": 8077,
      "constit": 8078,
      "late": 8079,
      "modern": 8080,
      "counts": 8081,
      "ension": 8082,
      "reasons": 8083,
      "serve": 8084,
      "beyond": 8085,
      "encouraged": 8086,
      "prices": 8087,
      "professional": 8088,
      "advice": 8089,
      "stri": 8090,
      "task": 8091,
      "Follow": 8092,
      "Room": 8093,
      "ijing": 8094,
      "appreciation": 8095,
      "odi": 8096,
      "CD": 8097,
      "French": 8098,
      "Administration": 8099,
      "...": 8100,
      "Please": 8101,
      "initial": 8102,
      "Latin": 8103,
      "criter": 8104,
      "riti": 8105,
      "seek": 8106,
      "Mor": 8107,
      "Beijing": 8108,
      "mom": 8109,
      "creation": 8110,
      "usions": 8111,
      "lined": 8112,
      "correc": 8113,
      "understand": 8114,
      "candid": 8115,
      "lay": 8116,
      "ureau": 8117,
      "recovery": 8118,
      "Gen": 8119,
      "penal": 8120,
      "fel": 8121,
      "heart": 8122,
      "acting": 8123,
      "deployment": 8124,
      "Disarmament": 8125,
      "enough": 8126,
      "Discrimination": 8127,
      "incorpor": 8128,
      "zone": 8129,
      "reaffir": 8130,
      "bad": 8131,
      "follows": 8132,
      "obligation": 8133,
      "bilateral": 8134,
      "iation": 8135,
      "oso": 8136,
      "dim": 8137,
      "weapon": 8138,
      "Egy": 8139,
      "1992": 8140,
      "explain": 8141,
      "educational": 8142,
      "audi": 8143,
      "rable": 8144,
      "Author": 8145,
      "Inte": 8146,
      "applicable": 8147,
      "Persons": 8148,
      "takes": 8149,
      "harmon": 8150,
      "las": 8151,
      "Cap": 8152,
      "consolid": 8153,
      "sis": 8154,
      "trial": 8155,
      "almost": 8156,
      "ible": 8157,
      "hear": 8158,
      "rapid": 8159,
      "Reques": 8160,
      "tative": 8161,
      "jurisdiction": 8162,
      "limit": 8163,
      "ive": 8164,
      "ju": 8165,
      "habilit": 8166,
      "inde": 8167,
      "TO": 8168,
      "eigh": 8169,
      "consensus": 8170,
      "gos": 8171,
      "Stand": 8172,
      "birth": 8173,
      "ened": 8174,
      "link": 8175,
      "reser": 8176,
      "requires": 8177,
      "Bar": 8178,
      "treaties": 8179,
      "ables": 8180,
      "Lo": 8181,
      "Association": 8182,
      "tele": 8183,
      "Rw": 8184,
      "load": 8185,
      "Tw": 8186,
      "chec": 8187,
      "majority": 8188,
      "leadership": 8189,
      "pil": 8190,
      "recently": 8191,
      "displaced": 8192,
      "enterprises": 8193,
      "terrorist": 8194,
      "hood": 8195,
      "Guine": 8196,
      "Wel": 8197,
      "enna": 8198,
      "forum": 8199,
      "IM": 8200,
      "father": 8201,
      "IA": 8202,
      "negative": 8203,
      "vereign": 8204,
      "press": 8205,
      "Polic": 8206,
      "disaster": 8207,
      "created": 8208,
      "remained": 8209,
      "earch": 8210,
      "measure": 8211,
      "phase": 8212,
      "ison": 8213,
      "subsi": 8214,
      "skills": 8215,
      "leading": 8216,
      "illegal": 8217,
      "concluded": 8218,
      "Prevention": 8219,
      "thir": 8220,
      "payment": 8221,
      "doing": 8222,
      "lier": 8223,
      "Eth": 8224,
      "acces": 8225,
      "respond": 8226,
      "90": 8227,
      "caused": 8228,
      "female": 8229,
      "challenge": 8230,
      "courts": 8231,
      "sharing": 8232,
      "tically": 8233,
      "efficient": 8234,
      "although": 8235,
      "achievement": 8236,
      "ising": 8237,
      "recon": 8238,
      "Requests": 8239,
      "accep": 8240,
      "detailed": 8241,
      "dollars": 8242,
      "expenditure": 8243,
      "demonstr": 8244,
      "band": 8245,
      "inspec": 8246,
      "istered": 8247,
      "plenary": 8248,
      "manu": 8249,
      "grad": 8250,
      "Guinea": 8251,
      "science": 8252,
      "Four": 8253,
      "conferences": 8254,
      "manufact": 8255,
      "announ": 8256,
      "certi": 8257,
      "Asian": 8258,
      "Middle": 8259,
      "raising": 8260,
      "acted": 8261,
      "nes": 8262,
      "destruction": 8263,
      "regime": 8264,
      "statistics": 8265,
      "bar": 8266,
      "Optional": 8267,
      "duty": 8268,
      "compared": 8269,
      "product": 8270,
      "EM": 8271,
      "election": 8272,
      "useful": 8273,
      "Moreover": 8274,
      "break": 8275,
      "craft": 8276,
      "accountability": 8277,
      "rich": 8278,
      "Sal": 8279,
      "insurance": 8280,
      "vital": 8281,
      ",\"": 8282,
      "word": 8283,
      "arbitr": 8284,
      "Mi": 8285,
      "tise": 8286,
      "riage": 8287,
      "improvement": 8288,
      "agricultural": 8289,
      "reflected": 8290,
      "convention": 8291,
      "UNFPA": 8292,
      "highligh": 8293,
      "Lebanon": 8294,
      "suff": 8295,
      "Great": 8296,
      "sovereign": 8297,
      "focused": 8298,
      "beginning": 8299,
      "prom": 8300,
      "reland": 8301,
      "munic": 8302,
      "clearly": 8303,
      "Elim": 8304,
      "Dar": 8305,
      "judge": 8306,
      "Vienna": 8307,
      "raise": 8308,
      "setting": 8309,
      "history": 8310,
      "operating": 8311,
      "Federal": 8312,
      "crete": 8313,
      "parents": 8314,
      "Ireland": 8315,
      "HC": 8316,
      "ening": 8317,
      "relative": 8318,
      "resulting": 8319,
      "zation": 8320,
      "dents": 8321,
      "applications": 8322,
      "movement": 8323,
      "dones": 8324,
      "written": 8325,
      "tools": 8326,
      "gation": 8327,
      "renew": 8328,
      "jour": 8329,
      "Indones": 8330,
      "base": 8331,
      "Yugos": 8332,
      "alleged": 8333,
      "suggested": 8334,
      "stock": 8335,
      "waste": 8336,
      "grant": 8337,
      "500": 8338,
      "Promo": 8339,
      "procurement": 8340,
      "approaches": 8341,
      "confidence": 8342,
      "mainly": 8343,
      "gment": 8344,
      "compar": 8345,
      "series": 8346,
      "dev": 8347,
      "Lab": 8348,
      "ease": 8349,
      "seas": 8350,
      "Research": 8351,
      "perspec": 8352,
      "judges": 8353,
      "heard": 8354,
      "cracy": 8355,
      "tas": 8356,
      "gar": 8357,
      "sil": 8358,
      "tour": 8359,
      "wal": 8360,
      "ions": 8361,
      "anim": 8362,
      "implications": 8363,
      "survey": 8364,
      "content": 8365,
      "began": 8366,
      "entry": 8367,
      "Legal": 8368,
      "presence": 8369,
      "offe": 8370,
      "Gre": 8371,
      "xed": 8372,
      "submission": 8373,
      "Draft": 8374,
      "mers": 8375,
      "remed": 8376,
      "holding": 8377,
      "lock": 8378,
      "mag": 8379,
      "hor": 8380,
      "partnerships": 8381,
      "told": 8382,
      "Third": 8383,
      "tivity": 8384,
      "involving": 8385,
      "Coordination": 8386,
      "safegu": 8387,
      "differen": 8388,
      "toral": 8389,
      "Prof": 8390,
      "Financial": 8391,
      "amp": 8392,
      "solid": 8393,
      "pain": 8394,
      "Six": 8395,
      "Our": 8396,
      "finance": 8397,
      "guarantee": 8398,
      "advoc": 8399,
      "Internet": 8400,
      "criteria": 8401,
      "inking": 8402,
      "Cl": 8403,
      "habilitation": 8404,
      "extreme": 8405,
      "vide": 8406,
      "ED": 8407,
      "fall": 8408,
      "1991": 8409,
      "Don": 8410,
      "erad": 8411,
      "dependent": 8412,
      "Note": 8413,
      "God": 8414,
      "Est": 8415,
      "illicit": 8416,
      "Budget": 8417,
      "exploitation": 8418,
      "Inv": 8419,
      "teenth": 8420,
      "lying": 8421,
      "assi": 8422,
      "Police": 8423,
      "added": 8424,
      "UNID": 8425,
      "mail": 8426,
      "consequences": 8427,
      "Now": 8428,
      "prin": 8429,
      "budgetary": 8430,
      "ST": 8431,
      "dipl": 8432,
      "ired": 8433,
      "instrument": 8434,
      "Table": 8435,
      "sanctions": 8436,
      "timely": 8437,
      "rid": 8438,
      "independence": 8439,
      "Haiti": 8440,
      "Somalia": 8441,
      "elected": 8442,
      "Drug": 8443,
      "ham": 8444,
      "becom": 8445,
      "observations": 8446,
      "capacities": 8447,
      "sensi": 8448,
      "Lu": 8449,
      "frequ": 8450,
      "town": 8451,
      "retur": 8452,
      "Egypt": 8453,
      "sixth": 8454,
      "ik": 8455,
      "weak": 8456,
      "Argent": 8457,
      "quick": 8458,
      "conflicts": 8459,
      "actual": 8460,
      "version": 8461,
      "actively": 8462,
      "UR": 8463,
      "unit": 8464,
      "Nuclear": 8465,
      "damage": 8466,
      "ulate": 8467,
      "pati": 8468,
      "Western": 8469,
      "orial": 8470,
      "condition": 8471,
      "Elimination": 8472,
      "ece": 8473,
      "cash": 8474,
      "closed": 8475,
      "voc": 8476,
      "learning": 8477,
      "Chief": 8478,
      "express": 8479,
      "acknow": 8480,
      "please": 8481,
      "closely": 8482,
      "EA": 8483,
      "recruit": 8484,
      "produced": 8485,
      "Technology": 8486,
      "constitution": 8487,
      "senior": 8488,
      "nation": 8489,
      "OM": 8490,
      "fight": 8491,
      "dead": 8492,
      "alle": 8493,
      "Community": 8494,
      "Labour": 8495,
      "inth": 8496,
      "risks": 8497,
      "argu": 8498,
      "forth": 8499,
      "valid": 8500,
      "witness": 8501,
      "ao": 8502,
      "abs": 8503,
      "subregional": 8504,
      "fulfil": 8505,
      "ands": 8506,
      "defined": 8507,
      "neigh": 8508,
      "perpet": 8509,
      "ered": 8510,
      "Phil": 8511,
      "akes": 8512,
      "moment": 8513,
      "From": 8514,
      "concrete": 8515,
      "Comp": 8516,
      "registration": 8517,
      "described": 8518,
      "valu": 8519,
      "rein": 8520,
      "Bureau": 8521,
      "Ques": 8522,
      "collection": 8523,
      "reduced": 8524,
      "contact": 8525,
      "poll": 8526,
      "generally": 8527,
      "OP": 8528,
      "Policy": 8529,
      "psy": 8530,
      "launched": 8531,
      "detain": 8532,
      "medium": 8533,
      "represented": 8534,
      "placement": 8535,
      "jan": 8536,
      "attach": 8537,
      "fare": 8538,
      "Where": 8539,
      "governments": 8540,
      "Slo": 8541,
      "spirit": 8542,
      "transparency": 8543,
      "danger": 8544,
      "minimum": 8545,
      "bon": 8546,
      "planned": 8547,
      "determined": 8548,
      "alternative": 8549,
      "outhern": 8550,
      "73": 8551,
      "Of": 8552,
      "COP": 8553,
      "fill": 8554,
      "bat": 8555,
      "mate": 8556,
      "ball": 8557,
      "fields": 8558,
      "conclusion": 8559,
      "reflect": 8560,
      "emission": 8561,
      "ases": 8562,
      "competition": 8563,
      "department": 8564,
      "susp": 8565,
      "maxim": 8566,
      "ense": 8567,
      "ipal": 8568,
      "relief": 8569,
      "causes": 8570,
      "intended": 8571,
      "Italy": 8572,
      "stay": 8573,
      "Members": 8574,
      "mess": 8575,
      "VI": 8576,
      "departments": 8577,
      "stressed": 8578,
      "gol": 8579,
      "democratic": 8580,
      "SP": 8581,
      "Those": 8582,
      "Authority": 8583,
      "alled": 8584,
      "mid": 8585,
      "followed": 8586,
      "nothing": 8587,
      "Governing": 8588,
      "buy": 8589,
      "versi": 8590,
      "doc": 8591,
      "shown": 8592,
      "Ze": 8593,
      "bility": 8594,
      "Ky": 8595,
      "pack": 8596,
      "seventh": 8597,
      "island": 8598,
      "difficulties": 8599,
      "exec": 8600,
      "Parliament": 8601,
      "Bas": 8602,
      "ua": 8603,
      "computer": 8604,
      "discrimin": 8605,
      "rise": 8606,
      "Turkey": 8607,
      "Then": 8608,
      "electronic": 8609,
      "Tim": 8610,
      "Indonesia": 8611,
      "places": 8612,
      "puts": 8613,
      "auto": 8614,
      "contributing": 8615,
      "enhancing": 8616,
      "Operations": 8617,
      "bul": 8618,
      "arity": 8619,
      "Prosec": 8620,
      "sche": 8621,
      "relig": 8622,
      "aircraft": 8623,
      "board": 8624,
      "Officer": 8625,
      "El": 8626,
      "clean": 8627,
      "onia": 8628,
      "corruption": 8629,
      "aging": 8630,
      "Territory": 8631,
      "mainstream": 8632,
      "dem": 8633,
      "engine": 8634,
      "sts": 8635,
      "ented": 8636,
      "ribu": 8637,
      "works": 8638,
      "mandates": 8639,
      "slow": 8640,
      "Swed": 8641,
      "Bang": 8642,
      "umer": 8643,
      "urgent": 8644,
      "banks": 8645,
      "ague": 8646,
      "ana": 8647,
      "enab": 8648,
      "determine": 8649,
      "excep": 8650,
      "phone": 8651,
      "collective": 8652,
      "los": 8653,
      "donors": 8654,
      "oli": 8655,
      "UNIDO": 8656,
      "possibility": 8657,
      "harm": 8658,
      "pressure": 8659,
      "fuel": 8660,
      "resses": 8661,
      "Kuwait": 8662,
      "enterprise": 8663,
      "Pop": 8664,
      "ciliation": 8665,
      "datab": 8666,
      "mend": 8667,
      "NGOs": 8668,
      "Training": 8669,
      "sumed": 8670,
      "absence": 8671,
      "component": 8672,
      "syste": 8673,
      "vill": 8674,
      "recognition": 8675,
      "Fra": 8676,
      "Car": 8677,
      "ero": 8678,
      "died": 8679,
      "gave": 8680,
      "Main": 8681,
      "Rwanda": 8682,
      "languages": 8683,
      "EU": 8684,
      "hom": 8685,
      "mutual": 8686,
      "front": 8687,
      "migrants": 8688,
      "Rules": 8689,
      "Provision": 8690,
      "assessments": 8691,
      "Spain": 8692,
      "cipl": 8693,
      "Port": 8694,
      "gl": 8695,
      "hosp": 8696,
      "civilians": 8697,
      "summary": 8698,
      "arm": 8699,
      "accounts": 8700,
      "Te": 8701,
      "mbass": 8702,
      "fort": 8703,
      "Islands": 8704,
      "Technical": 8705,
      "owing": 8706,
      "true": 8707,
      "Vol": 8708,
      "Swit": 8709,
      "saw": 8710,
      "Objec": 8711,
      "Bosn": 8712,
      "extended": 8713,
      "station": 8714,
      "Reco": 8715,
      "racial": 8716,
      "enhanced": 8717,
      "geograph": 8718,
      "allowed": 8719,
      "attend": 8720,
      "mobilization": 8721,
      "Weap": 8722,
      "path": 8723,
      "despite": 8724,
      "drop": 8725,
      "CON": 8726,
      "fig": 8727,
      "workshops": 8728,
      "immediately": 8729,
      "immediate": 8730,
      "SB": 8731,
      "Strate": 8732,
      "Any": 8733,
      "purch": 8734,
      "dro": 8735,
      "haz": 8736,
      "Strategy": 8737,
      "legiti": 8738,
      "uted": 8739,
      "meaning": 8740,
      "shared": 8741,
      "bition": 8742,
      "reducing": 8743,
      "tel": 8744,
      "entire": 8745,
      "authorized": 8746,
      "affairs": 8747,
      "FA": 8748,
      "sites": 8749,
      "Trust": 8750,
      "comment": 8751,
      "heav": 8752,
      "Recogn": 8753,
      "published": 8754,
      "simp": 8755,
      "Pl": 8756,
      "attacks": 8757,
      "Assistance": 8758,
      "increasingly": 8759,
      "bel": 8760,
      "discuss": 8761,
      "appointed": 8762,
      "involvement": 8763,
      "Uk": 8764,
      "expertise": 8765,
      "evalu": 8766,
      "obst": 8767,
      "ames": 8768,
      "repe": 8769,
      "clari": 8770,
      "zerland": 8771,
      "Ken": 8772,
      "welcome": 8773,
      "emerging": 8774,
      "Switzerland": 8775,
      "eighth": 8776,
      "green": 8777,
      "beha": 8778,
      "lerance": 8779,
      "Recom": 8780,
      "Jud": 8781,
      "expect": 8782,
      "lost": 8783,
      "earth": 8784,
      "ventions": 8785,
      "smo": 8786,
      "lea": 8787,
      "welcomes": 8788,
      "consumption": 8789,
      "pled": 8790,
      "draf": 8791,
      "rehabilitation": 8792,
      "size": 8793,
      "organs": 8794,
      "erra": 8795,
      "Mac": 8796,
      "solutions": 8797,
      "Its": 8798,
      "Serb": 8799,
      "Doc": 8800,
      "conclusions": 8801,
      "idea": 8802,
      "ches": 8803,
      "puty": 8804,
      "engaged": 8805,
      "grounds": 8806,
      "Initi": 8807,
      "mus": 8808,
      "pattern": 8809,
      "fine": 8810,
      "Nether": 8811,
      "Net": 8812,
      "flex": 8813,
      "accepted": 8814,
      "undertake": 8815,
      "highest": 8816,
      "Incre": 8817,
      "aily": 8818,
      "bab": 8819,
      "Year": 8820,
      "reviewed": 8821,
      "definition": 8822,
      "disp": 8823,
      "Vice": 8824,
      "occupied": 8825,
      "ninth": 8826,
      "aland": 8827,
      "uri": 8828,
      "utor": 8829,
      "processing": 8830,
      "coordinated": 8831,
      "membership": 8832,
      "original": 8833,
      "centre": 8834,
      "Netherlands": 8835,
      "Argentina": 8836,
      "approxim": 8837,
      "looking": 8838,
      "shows": 8839,
      "Experts": 8840,
      "ili": 8841,
      "resident": 8842,
      "options": 8843,
      "cat": 8844,
      "kill": 8845,
      "complement": 8846,
      "hind": 8847,
      "augh": 8848,
      "door": 8849,
      "Cultural": 8850,
      "failure": 8851,
      "Colomb": 8852,
      "encourages": 8853,
      "recruitment": 8854,
      "documentation": 8855,
      "marriage": 8856,
      "imposed": 8857,
      "sense": 8858,
      "Norway": 8859,
      "Chamber": 8860,
      "stor": 8861,
      "advis": 8862,
      "resid": 8863,
      "ibility": 8864,
      "Gender": 8865,
      "ICT": 8866,
      "CP": 8867,
      "Zealand": 8868,
      "worth": 8869,
      "proportion": 8870,
      "democracy": 8871,
      "Ben": 8872,
      "behavi": 8873,
      "wr": 8874,
      "controll": 8875,
      "bour": 8876,
      "thous": 8877,
      "iop": 8878,
      "Most": 8879,
      "doub": 8880,
      "strengthened": 8881,
      "Space": 8882,
      "usually": 8883,
      "Ref": 8884,
      "Tha": 8885,
      "urged": 8886,
      "pression": 8887,
      "representation": 8888,
      "values": 8889,
      "Statis": 8890,
      "played": 8891,
      "Ear": 8892,
      "calc": 8893,
      "direction": 8894,
      "produce": 8895,
      "defence": 8896,
      "participated": 8897,
      "Palestine": 8898,
      "Liberia": 8899,
      "Sierra": 8900,
      "estimates": 8901,
      "fying": 8902,
      "tiv": 8903,
      "distr": 8904,
      "histor": 8905,
      "deser": 8906,
      "expression": 8907,
      "ilt": 8908,
      "pul": 8909,
      "empower": 8910,
      "Ethiop": 8911,
      "usal": 8912,
      "ATION": 8913,
      ".\"": 8914,
      "Food": 8915,
      "gun": 8916,
      "Fam": 8917,
      "theless": 8918,
      "gov": 8919,
      "quanti": 8920,
      "conventions": 8921,
      "accounting": 8922,
      "fur": 8923,
      "responding": 8924,
      "Work": 8925,
      "occupation": 8926,
      "unity": 8927,
      "undi": 8928,
      "remaining": 8929,
      "mas": 8930,
      "Pow": 8931,
      "atell": 8932,
      "San": 8933,
      "endors": 8934,
      "started": 8935,
      "Int": 8936,
      "cohe": 8937,
      "didn": 8938,
      "accompl": 8939,
      "Philip": 8940,
      "75": 8941,
      "memor": 8942,
      "WA": 8943,
      "existence": 8944,
      "transl": 8945,
      "Cro": 8946,
      "Item": 8947,
      "learned": 8948,
      "diary": 8949,
      "location": 8950,
      "Brit": 8951,
      "www": 8952,
      "justi": 8953,
      "elabor": 8954,
      "cooperate": 8955,
      "Field": 8956,
      "Staff": 8957,
      "respectively": 8958,
      "alone": 8959,
      "targets": 8960,
      "affect": 8961,
      "crucial": 8962,
      "Gi": 8963,
      "ginal": 8964,
      "Framework": 8965,
      "vance": 8966,
      "Leone": 8967,
      "refugee": 8968,
      "Weapons": 8969,
      "zing": 8970,
      "Fifth": 8971,
      "blo": 8972,
      "aut": 8973,
      "dealing": 8974,
      "inclusion": 8975,
      "listed": 8976,
      "attr": 8977,
      "Moroc": 8978,
      "Koso": 8979,
      "structures": 8980,
      "stood": 8981,
      "perpetr": 8982,
      "changed": 8983,
      "became": 8984,
      "giving": 8985,
      "nut": 8986,
      "chair": 8987,
      "atures": 8988,
      "ised": 8989,
      "pir": 8990,
      "discipl": 8991,
      "etc": 8992,
      "speed": 8993,
      "networks": 8994,
      "emphasized": 8995,
      "executive": 8996,
      "tware": 8997,
      "Distr": 8998,
      "Fo": 8999,
      "Bosnia": 9000,
      "decl": 9001,
      "donor": 9002,
      "appointment": 9003,
      "enses": 9004,
      "NP": 9005,
      "pic": 9006,
      "freedoms": 9007,
      "gor": 9008,
      "headquarters": 9009,
      "deliber": 9010,
      "Control": 9011,
      "separate": 9012,
      "sider": 9013,
      "fast": 9014,
      "cities": 9015,
      "morning": 9016,
      "Nam": 9017,
      "users": 9018,
      "sun": 9019,
      "opening": 9020,
      "Gaz": 9021,
      "Fac": 9022,
      "Burundi": 9023,
      "strength": 9024,
      "friends": 9025,
      "himself": 9026,
      "prus": 9027,
      "looked": 9028,
      "Cyprus": 9029,
      "eight": 9030,
      "Princi": 9031,
      "mits": 9032,
      "dow": 9033,
      "300": 9034,
      "factor": 9035,
      "constitute": 9036,
      "occas": 9037,
      "HCHR": 9038,
      "secure": 9039,
      "severe": 9040,
      "Ur": 9041,
      "Rel": 9042,
      "normal": 9043,
      "AND": 9044,
      "competent": 9045,
      "examination": 9046,
      "perspective": 9047,
      "Guide": 9048,
      "Therefore": 9049,
      "resulted": 9050,
      "combating": 9051,
      "oration": 9052,
      "confir": 9053,
      "honour": 9054,
      "records": 9055,
      "highly": 9056,
      "Sing": 9057,
      "gree": 9058,
      "Kosovo": 9059,
      "Congress": 9060,
      "gran": 9061,
      "Fourth": 9062,
      "engage": 9063,
      "category": 9064,
      "wers": 9065,
      "OHCHR": 9066,
      "element": 9067,
      "registered": 9068,
      "deliver": 9069,
      "accur": 9070,
      "saving": 9071,
      "forty": 9072,
      "mines": 9073,
      "Introduc": 9074,
      "Integr": 9075,
      "internationally": 9076,
      "concent": 9077,
      "Objective": 9078,
      "Audit": 9079,
      "felt": 9080,
      "Austri": 9081,
      "offences": 9082,
      "Their": 9083,
      "organizational": 9084,
      "plant": 9085,
      "advantage": 9086,
      "century": 9087,
      "Peacekeeping": 9088,
      "approximately": 9089,
      "omatic": 9090,
      "integrity": 9091,
      "findings": 9092,
      "belong": 9093,
      "Roman": 9094,
      "cli": 9095,
      "fed": 9096,
      "uck": 9097,
      "Day": 9098,
      "wealth": 9099,
      "miti": 9100,
      "marine": 9101,
      "earlier": 9102,
      "nine": 9103,
      "speaking": 9104,
      "namely": 9105,
      "launch": 9106,
      "courses": 9107,
      "observers": 9108,
      "transmit": 9109,
      "Two": 9110,
      "components": 9111,
      "Britain": 9112,
      "radio": 9113,
      "AD": 9114,
      "Jama": 9115,
      "instruc": 9116,
      "Ambass": 9117,
      "raine": 9118,
      "eyes": 9119,
      "news": 9120,
      "anish": 9121,
      "learn": 9122,
      "techni": 9123,
      "vince": 9124,
      "participating": 9125,
      "greg": 9126,
      "emphasis": 9127,
      "obstac": 9128,
      "reet": 9129,
      "tasks": 9130,
      "Territories": 9131,
      "bene": 9132,
      "Viol": 9133,
      "formed": 9134,
      "Har": 9135,
      "Northern": 9136,
      "requirement": 9137,
      "TS": 9138,
      "fici": 9139,
      "contracts": 9140,
      "Ukraine": 9141,
      "outcomes": 9142,
      "declaration": 9143,
      "behind": 9144,
      "iland": 9145,
      "flows": 9146,
      "inding": 9147,
      "Che": 9148,
      "phen": 9149,
      "punishment": 9150,
      "willing": 9151,
      "Open": 9152,
      "ga": 9153,
      "threats": 9154,
      "wife": 9155,
      "disease": 9156,
      "cum": 9157,
      "subsequent": 9158,
      "feed": 9159,
      "influence": 9160,
      "rew": 9161,
      "Nigeria": 9162,
      "Financing": 9163,
      "eliminate": 9164,
      "volution": 9165,
      "Sweden": 9166,
      "uled": 9167,
      "Not": 9168,
      "quid": 9169,
      "din": 9170,
      "interested": 9171,
      "Ste": 9172,
      "iv": 9173,
      "urges": 9174,
      "urs": 9175,
      "Consider": 9176,
      "classi": 9177,
      "Azer": 9178,
      "weeks": 9179,
      "Reaffir": 9180,
      "Well": 9181,
      "Colombia": 9182,
      "IG": 9183,
      "PS": 9184,
      "owned": 9185,
      "cipal": 9186,
      "See": 9187,
      "Sur": 9188,
      "engagement": 9189,
      "je": 9190,
      "bai": 9191,
      "temp": 9192,
      "COM": 9193,
      "98": 9194,
      "easy": 9195,
      "victim": 9196,
      "reforms": 9197,
      "drugs": 9198,
      "Ano": 9199,
      "Air": 9200,
      "Sim": 9201,
      "conform": 9202,
      "agriculture": 9203,
      "Herze": 9204,
      "conting": 9205,
      "Boli": 9206,
      "ier": 9207,
      "aren": 9208,
      "itat": 9209,
      "website": 9210,
      "govina": 9211,
      "race": 9212,
      "Mic": 9213,
      "contributed": 9214,
      "embar": 9215,
      "Herzegovina": 9216,
      "candidates": 9217,
      "withdraw": 9218,
      "creating": 9219,
      "Chapter": 9220,
      "Streng": 9221,
      "numer": 9222,
      "wrong": 9223,
      "Ivo": 9224,
      "gross": 9225,
      "faced": 9226,
      "worked": 9227,
      "acce": 9228,
      "preced": 9229,
      "baijan": 9230,
      "Azerbaijan": 9231,
      "sho": 9232,
      "drawn": 9233,
      "degree": 9234,
      "specifically": 9235,
      "sta": 9236,
      "atute": 9237,
      "Chile": 9238,
      "whom": 9239,
      "Turk": 9240,
      "Another": 9241,
      "aint": 9242,
      "foot": 9243,
      "optim": 9244,
      "floor": 9245,
      "municipal": 9246,
      "diseas": 9247,
      "contains": 9248,
      "78": 9249,
      "statistical": 9250,
      "Philipp": 9251,
      "intern": 9252,
      "Population": 9253,
      "indicate": 9254,
      "grading": 9255,
      "else": 9256,
      "Ivoire": 9257,
      "iring": 9258,
      "holds": 9259,
      "acade": 9260,
      "bot": 9261,
      "bid": 9262,
      "gible": 9263,
      "bes": 9264,
      "regn": 9265,
      "cycle": 9266,
      "territories": 9267,
      "offered": 9268,
      "funded": 9269,
      "observed": 9270,
      "fis": 9271,
      "Hab": 9272,
      "Total": 9273,
      "accus": 9274,
      "nergy": 9275,
      "depos": 9276,
      "Every": 9277,
      "check": 9278,
      "lymp": 9279,
      "diseases": 9280,
      "responses": 9281,
      "enders": 9282,
      "religion": 9283,
      "ratification": 9284,
      "HO": 9285,
      "chapter": 9286,
      "trends": 9287,
      "qui": 9288,
      "ray": 9289,
      "highlighted": 9290,
      "extend": 9291,
      "moun": 9292,
      "quite": 9293,
      "lege": 9294,
      "expan": 9295,
      "interpretation": 9296,
      "employed": 9297,
      "categories": 9298,
      "advisory": 9299,
      "inclusive": 9300,
      "entered": 9301,
      "ox": 9302,
      "sle": 9303,
      "investigations": 9304,
      "Olymp": 9305,
      "Liby": 9306,
      "software": 9307,
      "servation": 9308,
      "Respon": 9309,
      "etary": 9310,
      "mining": 9311,
      "Deputy": 9312,
      "outstanding": 9313,
      "secondary": 9314,
      "plication": 9315,
      "survi": 9316,
      "minorities": 9317,
      "asters": 9318,
      "Croati": 9319,
      "Thus": 9320,
      "decre": 9321,
      "Refuge": 9322,
      "spread": 9323,
      "Agr": 9324,
      "ived": 9325,
      "tification": 9326,
      "Letter": 9327,
      "consent": 9328,
      "convic": 9329,
      "Decides": 9330,
      "Cô": 9331,
      "aims": 9332,
      "sought": 9333,
      "ney": 9334,
      "nar": 9335,
      "daily": 9336,
      "Recommend": 9337,
      "employees": 9338,
      "Côte": 9339,
      "vehicles": 9340,
      "regulation": 9341,
      "roy": 9342,
      "uan": 9343,
      "unte": 9344,
      "nations": 9345,
      "Br": 9346,
      "abil": 9347,
      "Ambassador": 9348,
      "preme": 9349,
      "seems": 9350,
      "specified": 9351,
      "uration": 9352,
      "linked": 9353,
      "unless": 9354,
      "Morocco": 9355,
      "Thailand": 9356,
      "prosecution": 9357,
      "completion": 9358,
      "Tor": 9359,
      "Malay": 9360,
      "Ug": 9361,
      "Finally": 9362,
      "Ministers": 9363,
      "significantly": 9364,
      "faction": 9365,
      "exceed": 9366,
      "identification": 9367,
      "tieth": 9368,
      "marks": 9369,
      "visits": 9370,
      "experiences": 9371,
      "lawy": 9372,
      "ford": 9373,
      "trying": 9374,
      "Out": 9375,
      "curren": 9376,
      "acking": 9377,
      "availability": 9378,
      "nutri": 9379,
      "acknowled": 9380,
      "recorded": 9381,
      "Humanitarian": 9382,
      "ket": 9383,
      "prob": 9384,
      "lessons": 9385,
      "Prepar": 9386,
      "supplement": 9387,
      "Ethiopia": 9388,
      "paras": 9389,
      "territorial": 9390,
      "SR": 9391,
      "recognize": 9392,
      "strict": 9393,
      "widely": 9394,
      "infec": 9395,
      "micro": 9396,
      "ributed": 9397,
      "provin": 9398,
      "DG": 9399,
      "obtained": 9400,
      "release": 9401,
      "failed": 9402,
      "seeking": 9403,
      "lled": 9404,
      "undred": 9405,
      "reasonable": 9406,
      "distinc": 9407,
      "Introduction": 9408,
      "books": 9409,
      "fru": 9410,
      "Indigenous": 9411,
      "substantial": 9412,
      "Status": 9413,
      "Contr": 9414,
      "liquid": 9415,
      "Sea": 9416,
      "granted": 9417,
      "percentage": 9418,
      "Cam": 9419,
      "oph": 9420,
      "allegations": 9421,
      "located": 9422,
      "Bec": 9423,
      "IAEA": 9424,
      "Consul": 9425,
      "Partnership": 9426,
      "minister": 9427,
      "Internal": 9428,
      "considers": 9429,
      "ades": 9430,
      "auti": 9431,
      "Tun": 9432,
      "norms": 9433,
      "hands": 9434,
      "expansion": 9435,
      "oles": 9436,
      "Terror": 9437,
      "ata": 9438,
      "99": 9439,
      "88": 9440,
      "socio": 9441,
      "born": 9442,
      "losses": 9443,
      "Paragraph": 9444,
      "electric": 9445,
      "details": 9446,
      "functioning": 9447,
      "spoke": 9448,
      "database": 9449,
      "opened": 9450,
      "pregn": 9451,
      "Agric": 9452,
      "Jer": 9453,
      "Red": 9454,
      "Regulations": 9455,
      "panel": 9456,
      "lavia": 9457,
      "emissions": 9458,
      "ken": 9459,
      "Monitor": 9460,
      "complaints": 9461,
      "Jord": 9462,
      "expenditures": 9463,
      "Chairperson": 9464,
      "sovereignty": 9465,
      "decide": 9466,
      "72": 9467,
      "ump": 9468,
      "convened": 9469,
      "heads": 9470,
      "psych": 9471,
      "sole": 9472,
      "airo": 9473,
      "War": 9474,
      "Yugoslavia": 9475,
      "preventing": 9476,
      "writing": 9477,
      "execution": 9478,
      "theme": 9479,
      "constitutional": 9480,
      "cks": 9481,
      "itions": 9482,
      "Austria": 9483,
      "Kenya": 9484,
      "regulatory": 9485,
      "belief": 9486,
      "largest": 9487,
      "plat": 9488,
      "Les": 9489,
      "boy": 9490,
      "payments": 9491,
      "List": 9492,
      "Your": 9493,
      "Briti": 9494,
      "supplies": 9495,
      "reven": 9496,
      "lling": 9497,
      "facing": 9498,
      "Even": 9499,
      "British": 9500,
      "supports": 9501,
      "Den": 9502,
      "Philippines": 9503,
      "diversity": 9504,
      "fai": 9505,
      "Jordan": 9506,
      "aj": 9507,
      "acceler": 9508,
      "train": 9509,
      "considering": 9510,
      "Mad": 9511,
      "expenses": 9512,
      "Def": 9513,
      "Camb": 9514,
      "otherwise": 9515,
      "Qu": 9516,
      "esh": 9517,
      "Docu": 9518,
      "everyone": 9519,
      "talk": 9520,
      "electoral": 9521,
      "ardi": 9522,
      "satell": 9523,
      "realization": 9524,
      "Following": 9525,
      "minority": 9526,
      "jobs": 9527,
      "populations": 9528,
      "Gaza": 9529,
      "IR": 9530,
      "ordinary": 9531,
      "Sen": 9532,
      "teams": 9533,
      "akh": 9534,
      "topic": 9535,
      "attain": 9536,
      "teaching": 9537,
      "prospec": 9538,
      "lor": 9539,
      "liber": 9540,
      "viation": 9541,
      "containing": 9542,
      "dar": 9543,
      "tempt": 9544,
      "mortal": 9545,
      "ley": 9546,
      "anything": 9547,
      "carrying": 9548,
      "selected": 9549,
      "cean": 9550,
      "enjoyment": 9551,
      "except": 9552,
      "Portu": 9553,
      "proved": 9554,
      "thematic": 9555,
      "favour": 9556,
      "reproductive": 9557,
      "Several": 9558,
      "Habitat": 9559,
      "command": 9560,
      "Assistant": 9561,
      "subprogramme": 9562,
      "liter": 9563,
      "photo": 9564,
      "tend": 9565,
      "Why": 9566,
      "UNAM": 9567,
      "79": 9568,
      "presid": 9569,
      "reintegration": 9570,
      "))": 9571,
      "partial": 9572,
      "built": 9573,
      "elimination": 9574,
      "Project": 9575,
      "hus": 9576,
      "Rule": 9577,
      "John": 9578,
      "happy": 9579,
      "code": 9580,
      "Soci": 9581,
      "teachers": 9582,
      "killed": 9583,
      "actually": 9584,
      "Anti": 9585,
      "hun": 9586,
      "announced": 9587,
      "ylum": 9588,
      "nationality": 9589,
      "changing": 9590,
      "Adoption": 9591,
      "hundred": 9592,
      "Concl": 9593,
      "aled": 9594,
      "Strateg": 9595,
      "numbers": 9596,
      "Sto": 9597,
      "dissemination": 9598,
      "technological": 9599,
      "CH": 9600,
      "sometimes": 9601,
      "Algeria": 9602,
      "tly": 9603,
      "Peru": 9604,
      "simple": 9605,
      "instance": 9606,
      "amounts": 9607,
      "duties": 9608,
      "previously": 9609,
      "lu": 9610,
      "maintained": 9611,
      "decrease": 9612,
      "ults": 9613,
      "blood": 9614,
      "identity": 9615,
      "Belgi": 9616,
      "Despite": 9617,
      "syn": 9618,
      "Questions": 9619,
      "wood": 9620,
      "Decade": 9621,
      "acci": 9622,
      "Darfur": 9623,
      "Georg": 9624,
      "cession": 9625,
      "stations": 9626,
      "diplomatic": 9627,
      "satisfaction": 9628,
      "intention": 9629,
      "attemp": 9630,
      "Particip": 9631,
      "deter": 9632,
      "74": 9633,
      "watch": 9634,
      "ilitary": 9635,
      "Yes": 9636,
      "scre": 9637,
      "Malaysia": 9638,
      "sco": 9639,
      "stance": 9640,
      "older": 9641,
      "sale": 9642,
      "eries": 9643,
      "wanted": 9644,
      "Myan": 9645,
      "Prime": 9646,
      "medic": 9647,
      "Banglad": 9648,
      "Erit": 9649,
      "Summary": 9650,
      "SO": 9651,
      "Myanmar": 9652,
      "comply": 9653,
      "protocol": 9654,
      "award": 9655,
      "entity": 9656,
      "Sm": 9657,
      "sales": 9658,
      "Uganda": 9659,
      "TR": 9660,
      "figu": 9661,
      "assessed": 9662,
      "ilateral": 9663,
      "Good": 9664,
      "Gr": 9665,
      "XX": 9666,
      "endorsed": 9667,
      "locked": 9668,
      "atri": 9669,
      "ME": 9670,
      "invent": 9671,
      "trend": 9672,
      "titude": 9673,
      "considerable": 9674,
      "dynam": 9675,
      "arily": 9676,
      "71": 9677,
      "Inspec": 9678,
      "retain": 9679,
      "Belar": 9680,
      "subsidiary": 9681,
      "Georgia": 9682,
      "mises": 9683,
      "offence": 9684,
      "Rac": 9685,
      "strongly": 9686,
      "disasters": 9687,
      "server": 9688,
      "surve": 9689,
      "oversight": 9690,
      "mist": 9691,
      "Tai": 9692,
      "iry": 9693,
      "soldi": 9694,
      "Eas": 9695,
      "investments": 9696,
      "presentation": 9697,
      "coverage": 9698,
      "thirty": 9699,
      "formulation": 9700,
      "Supreme": 9701,
      "thank": 9702,
      "quarter": 9703,
      "restrictions": 9704,
      "ships": 9705,
      "oth": 9706,
      "Meas": 9707,
      "unable": 9708,
      "ume": 9709,
      "answer": 9710,
      "arising": 9711,
      "ownership": 9712,
      "400": 9713,
      "extensive": 9714,
      "disability": 9715,
      "sides": 9716,
      "sustained": 9717,
      "76": 9718,
      "protected": 9719,
      "maintaining": 9720,
      "Loc": 9721,
      "middle": 9722,
      "differences": 9723,
      "Monitoring": 9724,
      "governing": 9725,
      "sentence": 9726,
      "targeted": 9727,
      "reconciliation": 9728,
      "brid": 9729,
      "matically": 9730,
      "Bangladesh": 9731,
      "citizen": 9732,
      "introduction": 9733,
      "Cz": 9734,
      "designated": 9735,
      "commissions": 9736,
      "characteristics": 9737,
      "MIN": 9738,
      "marily": 9739,
      "sensitive": 9740,
      "advanced": 9741,
      "Resources": 9742,
      "Each": 9743,
      "prohib": 9744,
      "husband": 9745,
      "sume": 9746,
      "showed": 9747,
      "maximum": 9748,
      "equitable": 9749,
      "pending": 9750,
      "Prosecutor": 9751,
      "journal": 9752,
      "faith": 9753,
      "decent": 9754,
      "Guate": 9755,
      "Principles": 9756,
      "Guatemal": 9757,
      "committees": 9758,
      "yes": 9759,
      "urrent": 9760,
      "Drugs": 9761,
      "box": 9762,
      "cide": 9763,
      "llig": 9764,
      "Saudi": 9765,
      "Croatia": 9766,
      "ino": 9767,
      "sha": 9768,
      "internally": 9769,
      "marked": 9770,
      "Pur": 9771,
      "ILO": 9772,
      "Energy": 9773,
      "confirmed": 9774,
      "latest": 9775,
      "abol": 9776,
      "Land": 9777,
      "ideas": 9778,
      "La": 9779,
      "amendments": 9780,
      "frameworks": 9781,
      "thu": 9782,
      "heavy": 9783,
      "mortality": 9784,
      "Resolution": 9785,
      "updated": 9786,
      "sphere": 9787,
      "Tan": 9788,
      "haps": 9789,
      "prec": 9790,
      "Cambodi": 9791,
      "legally": 9792,
      "CT": 9793,
      "inside": 9794,
      "names": 9795,
      "theory": 9796,
      "temper": 9797,
      "Finland": 9798,
      "generation": 9799,
      "UNODC": 9800,
      "delivered": 9801,
      "Developing": 9802,
      "Lebanese": 9803,
      "bran": 9804,
      "migrant": 9805,
      "Shan": 9806,
      "Through": 9807,
      "concluding": 9808,
      "minutes": 9809,
      "receiving": 9810,
      "uth": 9811,
      "trading": 9812,
      "join": 9813,
      "uster": 9814,
      "penalty": 9815,
      "transportation": 9816,
      "coast": 9817,
      "complainant": 9818,
      "track": 9819,
      "enabling": 9820,
      "Bah": 9821,
      "Noting": 9822,
      "troops": 9823,
      "Tunis": 9824,
      "wishes": 9825,
      "persist": 9826,
      "asylum": 9827,
      "VII": 9828,
      "gold": 9829,
      "Angol": 9830,
      "stable": 9831,
      "encouraging": 9832,
      "reservations": 9833,
      "District": 9834,
      "ratified": 9835,
      "amended": 9836,
      "someone": 9837,
      "fixed": 9838,
      "resh": 9839,
      "outer": 9840,
      "choice": 9841,
      "ESCO": 9842,
      "partner": 9843,
      "SA": 9844,
      "attended": 9845,
      "instead": 9846,
      "ventive": 9847,
      "Terrorism": 9848,
      "cold": 9849,
      "lia": 9850,
      "cul": 9851,
      "Ban": 9852,
      "globalization": 9853,
      "burden": 9854,
      "Timor": 9855,
      "parliament": 9856,
      "wind": 9857,
      "worldwide": 9858,
      "ker": 9859,
      "object": 9860,
      "unique": 9861,
      "Family": 9862,
      "everything": 9863,
      "popular": 9864,
      "Poland": 9865,
      "online": 9866,
      "eties": 9867,
      "infl": 9868,
      "Nep": 9869,
      "black": 9870,
      "legitimate": 9871,
      "shel": 9872,
      "ify": 9873,
      "FAO": 9874,
      "Belarus": 9875,
      "Bus": 9876,
      "Mechan": 9877,
      "abled": 9878,
      "hour": 9879,
      "primarily": 9880,
      "squ": 9881,
      "latter": 9882,
      "ectual": 9883,
      "makers": 9884,
      "eradication": 9885,
      "600": 9886,
      "Because": 9887,
      "concentr": 9888,
      "ula": 9889,
      "manage": 9890,
      "dream": 9891,
      "Set": 9892,
      "Scientific": 9893,
      "constructive": 9894,
      "reve": 9895,
      "Encoura": 9896,
      "Sign": 9897,
      "Power": 9898,
      "dig": 9899,
      "figh": 9900,
      "closure": 9901,
      "ESC": 9902,
      "LDC": 9903,
      "Armen": 9904,
      "modal": 9905,
      "wing": 9906,
      "admis": 9907,
      "white": 9908,
      "iary": 9909,
      "investigate": 9910,
      "grade": 9911,
      "ware": 9912,
      "quickly": 9913,
      "passed": 9914,
      "Pa": 9915,
      "hur": 9916,
      "Ali": 9917,
      "Saint": 9918,
      "surface": 9919,
      "eco": 9920,
      "Use": 9921,
      "allocation": 9922,
      "intensi": 9923,
      "shap": 9924,
      "accomplish": 9925,
      "suspec": 9926,
      "Eastern": 9927,
      "fear": 9928,
      "nearly": 9929,
      "Bul": 9930,
      "preparing": 9931,
      "mainstreaming": 9932,
      "systematic": 9933,
      "UNESCO": 9934,
      "putes": 9935,
      "Ecu": 9936,
      "division": 9937,
      "initiated": 9938,
      "explan": 9939,
      "Fri": 9940,
      "simply": 9941,
      "Czech": 9942,
      "gro": 9943,
      "achievements": 9944,
      "numerous": 9945,
      "ende": 9946,
      "elf": 9947,
      "posal": 9948,
      "examine": 9949,
      "Vene": 9950,
      "condem": 9951,
      "valuation": 9952,
      "gap": 9953,
      "Build": 9954,
      "protecting": 9955,
      "empowerment": 9956,
      "Initiative": 9957,
      "tried": 9958,
      "autonom": 9959,
      "managers": 9960,
      "ican": 9961,
      "returned": 9962,
      "grave": 9963,
      "Profession": 9964,
      "dign": 9965,
      "permit": 9966,
      "background": 9967,
      "City": 9968,
      "Refugees": 9969,
      "conformity": 9970,
      "accused": 9971,
      "OL": 9972,
      "gate": 9973,
      "getting": 9974,
      "Forms": 9975,
      "resolve": 9976,
      "publication": 9977,
      "thereby": 9978,
      "corporate": 9979,
      "Stud": 9980,
      "rene": 9981,
      "iii": 9982,
      "Strengthe": 9983,
      "Monday": 9984,
      "Ecuador": 9985,
      "powers": 9986,
      "certific": 9987,
      "adverse": 9988,
      "charges": 9989,
      "geting": 9990,
      "STA": 9991,
      "aritime": 9992,
      "appeared": 9993,
      "facilitating": 9994,
      "consci": 9995,
      "ING": 9996,
      "liability": 9997,
      "ambia": 9998,
      "gressive": 9999,
      "pursue": 10000,
      "kept": 10001,
      "voted": 10002,
      "publications": 10003,
      "zuel": 10004,
      "dispute": 10005,
      "85": 10006,
      "transparent": 10007,
      "immun": 10008,
      "Appe": 10009,
      "unemployment": 10010,
      "Promotion": 10011,
      "valuable": 10012,
      "acceptable": 10013,
      "sustainability": 10014,
      "EL": 10015,
      "Inde": 10016,
      "Bi": 10017,
      "Spanish": 10018,
      "Viet": 10019,
      "orders": 10020,
      "combined": 10021,
      "perf": 10022,
      "Mul": 10023,
      "Saf": 10024,
      "figure": 10025,
      "Military": 10026,
      "occurred": 10027,
      "Establish": 10028,
      "Belgium": 10029,
      "binding": 10030,
      "Singap": 10031,
      "barri": 10032,
      "jointly": 10033,
      "master": 10034,
      "chief": 10035,
      "bear": 10036,
      "chemicals": 10037,
      "Singapore": 10038,
      "Last": 10039,
      "impacts": 10040,
      "academic": 10041,
      "rang": 10042,
      "incidents": 10043,
      "selection": 10044,
      "extr": 10045,
      "racism": 10046,
      "Venezuel": 10047,
      "helped": 10048,
      "sam": 10049,
      "Guatemala": 10050,
      "Nepal": 10051,
      "declared": 10052,
      "undertaking": 10053,
      "Based": 10054,
      "hot": 10055,
      "prelim": 10056,
      "verification": 10057,
      "ribut": 10058,
      "Ber": 10059,
      "weight": 10060,
      "isition": 10061,
      "vail": 10062,
      "mob": 10063,
      "difference": 10064,
      "believes": 10065,
      "UNIF": 10066,
      "transit": 10067,
      "principal": 10068,
      "emp": 10069,
      "substances": 10070,
      "president": 10071,
      "reservation": 10072,
      "Proced": 10073,
      "Russia": 10074,
      "ength": 10075,
      "exports": 10076,
      "hospital": 10077,
      "Paris": 10078,
      "notice": 10079,
      "becoming": 10080,
      "bringing": 10081,
      "Invest": 10082,
      "Rev": 10083,
      "Leg": 10084,
      "Found": 10085,
      "ault": 10086,
      "drafting": 10087,
      "ennial": 10088,
      "regularly": 10089,
      "cessive": 10090,
      "obstacles": 10091,
      "Hung": 10092,
      "geographical": 10093,
      "reti": 10094,
      "Network": 10095,
      "coordinate": 10096,
      "relatively": 10097,
      "isation": 10098,
      "Friday": 10099,
      "Sri": 10100,
      "ron": 10101,
      "WHO": 10102,
      "dum": 10103,
      "constant": 10104,
      "Universal": 10105,
      "assign": 10106,
      "ka": 10107,
      "Ver": 10108,
      "filled": 10109,
      "manager": 10110,
      "School": 10111,
      "user": 10112,
      "ET": 10113,
      "Effec": 10114,
      "preliminary": 10115,
      "selling": 10116,
      "89": 10117,
      "ov": 10118,
      "variety": 10119,
      "dep": 10120,
      "fit": 10121,
      "allocated": 10122,
      "virt": 10123,
      "saying": 10124,
      "phenomen": 10125,
      "scheduled": 10126,
      "claimed": 10127,
      "rs": 10128,
      "Water": 10129,
      "appearance": 10130,
      "usalem": 10131,
      "game": 10132,
      "amendment": 10133,
      "Jerusalem": 10134,
      "voice": 10135,
      "dependence": 10136,
      "raints": 10137,
      "speakers": 10138,
      "DAW": 10139,
      "Employ": 10140,
      "Small": 10141,
      "controls": 10142,
      "cast": 10143,
      "multiple": 10144,
      "map": 10145,
      "oul": 10146,
      "neighbour": 10147,
      "crow": 10148,
      "warning": 10149,
      "istries": 10150,
      "prompt": 10151,
      "reviews": 10152,
      "reconstruction": 10153,
      "essor": 10154,
      "Cer": 10155,
      "fell": 10156,
      "Greece": 10157,
      "structural": 10158,
      "send": 10159,
      "ENT": 10160,
      "released": 10161,
      "adaptation": 10162,
      "affecting": 10163,
      "Sahar": 10164,
      "pollution": 10165,
      "Lank": 10166,
      "CEDAW": 10167,
      "turned": 10168,
      "udes": 10169,
      "figures": 10170,
      "print": 10171,
      "Ti": 10172,
      "gives": 10173,
      "brary": 10174,
      "Denmark": 10175,
      "enem": 10176,
      "Pen": 10177,
      "Mus": 10178,
      "ival": 10179,
      "innovative": 10180,
      "truth": 10181,
      "eat": 10182,
      "ondon": 10183,
      "covering": 10184,
      "Subcommittee": 10185,
      "destroy": 10186,
      "wall": 10187,
      "Comprehensive": 10188,
      "Movement": 10189,
      "identifying": 10190,
      "doesn": 10191,
      "Pan": 10192,
      "Tod": 10193,
      "arding": 10194,
      "ets": 10195,
      "Strategic": 10196,
      "beauti": 10197,
      "Calls": 10198,
      "Kaz": 10199,
      "inspection": 10200,
      "capabilities": 10201,
      "serving": 10202,
      "spent": 10203,
      "Professional": 10204,
      "brother": 10205,
      "alian": 10206,
      "music": 10207,
      "SC": 10208,
      "plicit": 10209,
      "sors": 10210,
      "Common": 10211,
      "increases": 10212,
      "London": 10213,
      "Angola": 10214,
      "Planning": 10215,
      "testing": 10216,
      "Iraqi": 10217,
      "Earth": 10218,
      "carbon": 10219,
      "transactions": 10220,
      "hoped": 10221,
      "preser": 10222,
      "Costa": 10223,
      "credi": 10224,
      "tourism": 10225,
      "believed": 10226,
      "Science": 10227,
      "envis": 10228,
      "examined": 10229,
      "south": 10230,
      "revision": 10231,
      "shar": 10232,
      "800": 10233,
      "discriminatory": 10234,
      "Who": 10235,
      "card": 10236,
      "nd": 10237,
      "functional": 10238,
      "Cambodia": 10239,
      "factory": 10240,
      "OI": 10241,
      "disputes": 10242,
      "copy": 10243,
      "improvements": 10244,
      "deployed": 10245,
      "Commit": 10246,
      "joined": 10247,
      "bearing": 10248,
      "Never": 10249,
      "lif": 10250,
      "suffering": 10251,
      "Eritrea": 10252,
      "emen": 10253,
      "Traffic": 10254,
      "facts": 10255,
      "rose": 10256,
      "Safety": 10257,
      "letters": 10258,
      "swe": 10259,
      "pension": 10260,
      "Venezuela": 10261,
      "mobile": 10262,
      "Serbia": 10263,
      "umb": 10264,
      "prescri": 10265,
      "Forces": 10266,
      "Produc": 10267,
      "prefer": 10268,
      "served": 10269,
      "prisoners": 10270,
      "extension": 10271,
      "Reduc": 10272,
      "attempt": 10273,
      "quiry": 10274,
      "aggreg": 10275,
      "dimension": 10276,
[...]
